{
  "version": "1.0",
  "truncation": null,
  "padding": null,
  "added_tokens": [
    {
      "id": 0,
      "content": "[UNK]",
      "single_word": false,
      "lstrip": false,
      "rstrip": false,
      "normalized": false,
      "special": true
    },
    {
      "id": 1,
      "content": "[CLS]",
      "single_word": false,
      "lstrip": false,
      "rstrip": false,
      "normalized": false,
      "special": true
    },
    {
      "id": 2,
      "content": "[SEP]",
      "single_word": false,
      "lstrip": false,
      "rstrip": false,
      "normalized": false,
      "special": true
    },
    {
      "id": 3,
      "content": "[PAD]",
      "single_word": false,
      "lstrip": false,
      "rstrip": false,
      "normalized": false,
      "special": true
    },
    {
      "id": 4,
      "content": "[MASK]",
      "single_word": false,
      "lstrip": false,
      "rstrip": false,
      "normalized": false,
      "special": true
    },
    {
      "id": 5,
      "content": "[LANG=eng]",
      "single_word": false,
      "lstrip": false,
      "rstrip": false,
      "normalized": false,
      "special": true
    },
    {
      "id": 6,
      "content": "[LANG=fin]",
      "single_word": false,
      "lstrip": false,
      "rstrip": false,
      "normalized": false,
      "special": true
    },
    {
      "id": 7,
      "content": "[LANG=ger]",
      "single_word": false,
      "lstrip": false,
      "rstrip": false,
      "normalized": false,
      "special": true
    }
  ],
  "normalizer": null,
  "pre_tokenizer": {
    "type": "ByteLevel",
    "add_prefix_space": true,
    "trim_offsets": true,
    "use_regex": true
  },
  "post_processor": null,
  "decoder": null,
  "model": {
    "type": "BPE",
    "dropout": null,
    "unk_token": "[UNK]",
    "continuing_subword_prefix": null,
    "end_of_word_suffix": null,
    "fuse_unk": false,
    "byte_fallback": false,
    "ignore_merges": false,
    "vocab": {
      "[UNK]": 0,
      "[CLS]": 1,
      "[SEP]": 2,
      "[PAD]": 3,
      "[MASK]": 4,
      "[LANG=eng]": 5,
      "[LANG=fin]": 6,
      "[LANG=ger]": 7,
      "!": 8,
      "\"": 9,
      "#": 10,
      "$": 11,
      "%": 12,
      "&": 13,
      "'": 14,
      "(": 15,
      ")": 16,
      "*": 17,
      "+": 18,
      ",": 19,
      "-": 20,
      ".": 21,
      "/": 22,
      "0": 23,
      "1": 24,
      "2": 25,
      "3": 26,
      "4": 27,
      "5": 28,
      "6": 29,
      "7": 30,
      "8": 31,
      "9": 32,
      ":": 33,
      ";": 34,
      "<": 35,
      "=": 36,
      ">": 37,
      "?": 38,
      "@": 39,
      "A": 40,
      "B": 41,
      "C": 42,
      "D": 43,
      "E": 44,
      "F": 45,
      "G": 46,
      "H": 47,
      "I": 48,
      "J": 49,
      "K": 50,
      "L": 51,
      "M": 52,
      "N": 53,
      "O": 54,
      "P": 55,
      "Q": 56,
      "R": 57,
      "S": 58,
      "T": 59,
      "U": 60,
      "V": 61,
      "W": 62,
      "X": 63,
      "Y": 64,
      "Z": 65,
      "[": 66,
      "\\": 67,
      "]": 68,
      "^": 69,
      "_": 70,
      "`": 71,
      "a": 72,
      "b": 73,
      "c": 74,
      "d": 75,
      "e": 76,
      "f": 77,
      "g": 78,
      "h": 79,
      "i": 80,
      "j": 81,
      "k": 82,
      "l": 83,
      "m": 84,
      "n": 85,
      "o": 86,
      "p": 87,
      "q": 88,
      "r": 89,
      "s": 90,
      "t": 91,
      "u": 92,
      "v": 93,
      "w": 94,
      "x": 95,
      "y": 96,
      "z": 97,
      "{": 98,
      "|": 99,
      "}": 100,
      "~": 101,
      "¡": 102,
      "¢": 103,
      "£": 104,
      "¤": 105,
      "¥": 106,
      "¦": 107,
      "§": 108,
      "¨": 109,
      "©": 110,
      "ª": 111,
      "«": 112,
      "¬": 113,
      "®": 114,
      "¯": 115,
      "°": 116,
      "±": 117,
      "²": 118,
      "³": 119,
      "´": 120,
      "µ": 121,
      "¶": 122,
      "·": 123,
      "¸": 124,
      "¹": 125,
      "º": 126,
      "»": 127,
      "¼": 128,
      "½": 129,
      "¾": 130,
      "¿": 131,
      "Â": 132,
      "Ã": 133,
      "Ä": 134,
      "Å": 135,
      "Ç": 136,
      "È": 137,
      "É": 138,
      "Ê": 139,
      "Ë": 140,
      "Ì": 141,
      "Í": 142,
      "Î": 143,
      "Ï": 144,
      "Ð": 145,
      "Ñ": 146,
      "Ò": 147,
      "Ö": 148,
      "Ø": 149,
      "Ù": 150,
      "Û": 151,
      "à": 152,
      "á": 153,
      "â": 154,
      "ã": 155,
      "ï": 156,
      "ð": 157,
      "ĉ": 158,
      "Ċ": 159,
      "č": 160,
      "Đ": 161,
      "Ġ": 162,
      "ġ": 163,
      "Ģ": 164,
      "ģ": 165,
      "Ĥ": 166,
      "ĥ": 167,
      "Ħ": 168,
      "ħ": 169,
      "Ĩ": 170,
      "ĩ": 171,
      "Ī": 172,
      "ī": 173,
      "Ĭ": 174,
      "ĭ": 175,
      "Į": 176,
      "į": 177,
      "İ": 178,
      "ı": 179,
      "Ĳ": 180,
      "ĳ": 181,
      "Ĵ": 182,
      "ĵ": 183,
      "Ķ": 184,
      "ķ": 185,
      "ĸ": 186,
      "Ĺ": 187,
      "ĺ": 188,
      "Ļ": 189,
      "ļ": 190,
      "Ľ": 191,
      "ľ": 192,
      "Ŀ": 193,
      "ŀ": 194,
      "Ł": 195,
      "ł": 196,
      "Ń": 197,
      "Ġt": 198,
      "Ġa": 199,
      "he": 200,
      "in": 201,
      "en": 202,
      "re": 203,
      "Ġthe": 204,
      "on": 205,
      "Ġs": 206,
      "Ġw": 207,
      "er": 208,
      "ou": 209,
      "at": 210,
      "is": 211,
      "Ġb": 212,
      "Ġc": 213,
      "or": 214,
      "it": 215,
      "an": 216,
      "ing": 217,
      "Ġp": 218,
      "Ġf": 219,
      "es": 220,
      "Ġo": 221,
      "Ġan": 222,
      "Ġto": 223,
      "Ġm": 224,
      "Ġd": 225,
      "ll": 226,
      "Ġh": 227,
      "Ġth": 228,
      "ed": 229,
      "AN": 230,
      "Ġ[": 231,
      "čĊ": 232,
      "eng": 233,
      "ANG": 234,
      "LANG": 235,
      "ar": 236,
      "Ġl": 237,
      "Ġand": 238,
      "Ġof": 239,
      "Ġin": 240,
      "Ġn": 241,
      "ic": 242,
      "as": 243,
      "al": 244,
      "Ġy": 245,
      "om": 246,
      "ĠI": 247,
      "ot": 248,
      "ĠT": 249,
      "Ġis": 250,
      "Ġg": 251,
      "le": 252,
      "st": 253,
      "Ġbe": 254,
      "Ġyou": 255,
      "ve": 256,
      "ion": 257,
      "ent": 258,
      "Ġe": 259,
      "id": 260,
      "..": 261,
      "Ġre": 262,
      "ow": 263,
      "Ġthat": 264,
      "se": 265,
      "Ġon": 266,
      "ay": 267,
      "ad": 268,
      "Ġfor": 269,
      "ld": 270,
      "et": 271,
      "ac": 272,
      "ver": 273,
      "ly": 274,
      "ĠA": 275,
      "Ġwh": 276,
      "im": 277,
      "Ġit": 278,
      "Ġu": 279,
      "ig": 280,
      "ut": 281,
      "ro": 282,
      "Ġst": 283,
      "ill": 284,
      "Ġhe": 285,
      "Ġare": 286,
      "ĠS": 287,
      "ke": 288,
      "ĠC": 289,
      "Ġha": 290,
      "'s": 291,
      "ct": 292,
      "ru": 293,
      "ĠW": 294,
      "am": 295,
      "out": 296,
      "ir": 297,
      "ĠThe": 298,
      "Ġnot": 299,
      "Ġwe": 300,
      "ith": 301,
      "all": 302,
      "ol": 303,
      "op": 304,
      "ould": 305,
      "'t": 306,
      "ch": 307,
      "ĠH": 308,
      "Ġwith": 309,
      "ce": 310,
      "Ġli": 311,
      "Ġr": 312,
      "Ġdo": 313,
      "Ġhave": 314,
      "Ġas": 315,
      "ers": 316,
      "nd": 317,
      "il": 318,
      "ĠM": 319,
      "ate": 320,
      "ation": 321,
      "ur": 322,
      "ĠB": 323,
      "her": 324,
      "ment": 325,
      "ist": 326,
      "Ġthey": 327,
      "Ġgo": 328,
      "Ġne": 329,
      "ĠĠ": 330,
      "Ġthis": 331,
      "Ġj": 332,
      "ust": 333,
      "ĠP": 334,
      "ht": 335,
      "mp": 336,
      "Ġde": 337,
      "Ġwas": 338,
      "if": 339,
      "ore": 340,
      "Ġ\"": 341,
      "Ġcom": 342,
      "ĠN": 343,
      "ĠD": 344,
      "Ġse": 345,
      "Ġsu": 346,
      "Ġsh": 347,
      "Ġpro": 348,
      "ess": 349,
      "Ġcon": 350,
      "and": 351,
      "Ġk": 352,
      "our": 353,
      "pp": 354,
      "ant": 355,
      "ge": 356,
      "Ġor": 357,
      "us": 358,
      "est": 359,
      "Ġall": 360,
      "Ġab": 361,
      "Ġv": 362,
      "one": 363,
      "ul": 364,
      "ome": 365,
      "ain": 366,
      "ter": 367,
      "ĠO": 368,
      "Ġat": 369,
      "Ġyour": 370,
      "ĠY": 371,
      "ally": 372,
      "od": 373,
      "ort": 374,
      "Ġfr": 375,
      "Ġso": 376,
      "Ġwill": 377,
      "ie": 378,
      "ĠR": 379,
      "ĠG": 380,
      "Ġcan": 381,
      "ity": 382,
      "ab": 383,
      "res": 384,
      "ight": 385,
      "au": 386,
      "Ġle": 387,
      "Ġwho": 388,
      "ĠL": 389,
      "Ġex": 390,
      "ri": 391,
      "ost": 392,
      "ĠTru": 393,
      "un": 394,
      "ĠTh": 395,
      "art": 396,
      "end": 397,
      "Ġtheir": 398,
      "eop": 399,
      "Ġbut": 400,
      "Ġme": 401,
      "eople": 402,
      "pe": 403,
      "...": 404,
      "ive": 405,
      "Ġlike": 406,
      "Ġby": 407,
      "Ġwould": 408,
      "Ġwor": 409,
      "os": 410,
      "ĠF": 411,
      "Ġta": 412,
      "Ġch": 413,
      "th": 414,
      "Ġfrom": 415,
      "Ġhas": 416,
      "Ġpeople": 417,
      "Ġabout": 418,
      "oc": 419,
      "Ġal": 420,
      "Ġout": 421,
      "Ġwhat": 422,
      "nt": 423,
      "ry": 424,
      "Ġany": 425,
      "um": 426,
      "ĠTrump": 427,
      "em": 428,
      "king": 429,
      "ies": 430,
      "ans": 431,
      "Ġhis": 432,
      "Ġwhe": 433,
      "Ġjust": 434,
      "Ġget": 435,
      "very": 436,
      "qu": 437,
      "Ġup": 438,
      "ous": 439,
      "ear": 440,
      "ard": 441,
      "ack": 442,
      "Ġno": 443,
      "ĠWh": 444,
      "ĠIt": 445,
      "red": 446,
      "Ġma": 447,
      "ĠE": 448,
      "Ġmore": 449,
      "ra": 450,
      "iv": 451,
      "oo": 452,
      "ĠYou": 453,
      "Ġthem": 454,
      "Ġkn": 455,
      "ĠU": 456,
      "ast": 457,
      "oug": 458,
      "Ġone": 459,
      "Ġ(": 460,
      "act": 461,
      "Ġag": 462,
      "ther": 463,
      "ep": 464,
      "Ġif": 465,
      "ame": 466,
      "Ġpl": 467,
      "!!": 468,
      "Ġdon": 469,
      "ong": 470,
      "....": 471,
      "ose": 472,
      "ks": 473,
      "ber": 474,
      "Ġsome": 475,
      "el": 476,
      "Ġar": 477,
      "ind": 478,
      "Ġman": 479,
      "te": 480,
      "up": 481,
      "ime": 482,
      "ĠJ": 483,
      "Ġthere": 484,
      "Ġ-": 485,
      "Ġknow": 486,
      "ice": 487,
      "hing": 488,
      "ff": 489,
      "ven": 490,
      "ide": 491,
      "Ġus": 492,
      "ud": 493,
      "ag": 494,
      "Ġour": 495,
      "ub": 496,
      "Ġshould": 497,
      "Ġthin": 498,
      "Ġthan": 499,
      "Ġ1": 500,
      "Ġyear": 501,
      "ions": 502,
      "Ġbec": 503,
      "ount": 504,
      "lic": 505,
      "ap": 506,
      "Ġpr": 507,
      "Ġother": 508,
      "Ġun": 509,
      "ble": 510,
      "ci": 511,
      "ause": 512,
      "ign": 513,
      "00": 514,
      "are": 515,
      "Ġmy": 516,
      "Ġwhen": 517,
      "aw": 518,
      "ite": 519,
      "iz": 520,
      "age": 521,
      "Ġcl": 522,
      "âĢ": 523,
      "ich": 524,
      "ure": 525,
      "ence": 526,
      "ĠHe": 527,
      "Ġneed": 528,
      "ect": 529,
      "Ġim": 530,
      "Ġdid": 531,
      "ine": 532,
      "Ġdis": 533,
      "ĠK": 534,
      "Ġoff": 535,
      "ob": 536,
      "Ġcomp": 537,
      "Ġover": 538,
      "ue": 539,
      "Ġhow": 540,
      "Ġad": 541,
      "upid": 542,
      "ound": 543,
      "ĠCan": 544,
      "ree": 545,
      "Ġ2": 546,
      "mer": 547,
      "Ġres": 548,
      "Ġdoes": 549,
      "ass": 550,
      "Ġbeen": 551,
      "Ġtax": 552,
      "ough": 553,
      "Ġinc": 554,
      "ary": 555,
      "Ġsay": 556,
      "int": 557,
      "Ġthink": 558,
      "Ġwere": 559,
      "own": 560,
      "ell": 561,
      "ated": 562,
      "Ġwant": 563,
      "Ġen": 564,
      "Ġright": 565,
      "Ġtime": 566,
      "Ġstupid": 567,
      "Ġpol": 568,
      "Ġtr": 569,
      "able": 570,
      "Ġhim": 571,
      "Ġevery": 572,
      "Ġsp": 573,
      "Ġsa": 574,
      "ia": 575,
      "ĠAnd": 576,
      "to": 577,
      "ĠCanad": 578,
      "Ġbecause": 579,
      "Ġpo": 580,
      "Ġonly": 581,
      "uc": 582,
      "ical": 583,
      "vern": 584,
      "ens": 585,
      "pt": 586,
      "Ġact": 587,
      "ĠIf": 588,
      "ublic": 589,
      "ace": 590,
      "Ġund": 591,
      "ons": 592,
      "ase": 593,
      "per": 594,
      "way": 595,
      "uch": 596,
      "ĠThis": 597,
      "ire": 598,
      "Ġcont": 599,
      "Ġac": 600,
      "wn": 601,
      "Ġvot": 602,
      "Ġgr": 603,
      "Ġsee": 604,
      "ance": 605,
      "Ġpart": 606,
      "ident": 607,
      "ĠWhat": 608,
      "Ġqu": 609,
      "reat": 610,
      "ult": 611,
      "ail": 612,
      "lect": 613,
      "Ġhad": 614,
      "sel": 615,
      "ving": 616,
      "als": 617,
      "Ġbl": 618,
      "og": 619,
      "Ġnow": 620,
      "Ġthose": 621,
      "ew": 622,
      "Ġcount": 623,
      "Ġway": 624,
      "Ġpay": 625,
      "'re": 626,
      "Ġam": 627,
      "Ġthing": 628,
      "Ġsupp": 629,
      "Ġthen": 630,
      "ile": 631,
      "Ġthese": 632,
      "vernment": 633,
      "Ġbeing": 634,
      "ip": 635,
      "Ġgu": 636,
      "itt": 637,
      "Ġru": 638,
      "ĠThey": 639,
      "Ġyears": 640,
      "ian": 641,
      "Ġgood": 642,
      "Ġbu": 643,
      "ild": 644,
      "meric": 645,
      "ft": 646,
      "Ġeven": 647,
      "Ġown": 648,
      "ĠThat": 649,
      "Ġmake": 650,
      "ool": 651,
      "ress": 652,
      "ious": 653,
      "ick": 654,
      "Ġmuch": 655,
      "Ġbet": 656,
      "Ġper": 657,
      "ĠSt": 658,
      "Ġmany": 659,
      "ĠAl": 660,
      "oney": 661,
      "ĠWe": 662,
      "Ġnew": 663,
      "Ġcould": 664,
      "tt": 665,
      "ond": 666,
      "Ġrep": 667,
      "Ġtoo": 668,
      "Ġher": 669,
      "Ġagain": 670,
      "Ġback": 671,
      "Ġco": 672,
      "so": 673,
      "ish": 674,
      "Ġgovernment": 675,
      "be": 676,
      "ĠAmeric": 677,
      "ors": 678,
      "Ġpre": 679,
      "Ġapp": 680,
      "other": 681,
      "Ġshe": 682,
      "oy": 683,
      "Ġunder": 684,
      "ves": 685,
      "Ġmoney": 686,
      "Ġwhich": 687,
      "ood": 688,
      "iot": 689,
      "Ġinto": 690,
      "ĠCh": 691,
      "Ġgoing": 692,
      "fer": 693,
      "ak": 694,
      "ook": 695,
      "Ġcr": 696,
      "ĠSo": 697,
      "ĠIn": 698,
      "ations": 699,
      "Ġbel": 700,
      "Ġwork": 701,
      "ade": 702,
      "Ġspe": 703,
      "ict": 704,
      "Ġreal": 705,
      "ory": 706,
      "ocr": 707,
      "Ġid": 708,
      "ger": 709,
      "tic": 710,
      "ove": 711,
      "Ġbr": 712,
      "Ġmost": 713,
      "'m": 714,
      "Ġwr": 715,
      "ord": 716,
      "Ġstate": 717,
      "Ġ'": 718,
      "Ġsc": 719,
      "--": 720,
      "Ġ@": 721,
      "Ġtru": 722,
      "Ġcomment": 723,
      "erv": 724,
      "erson": 725,
      "ĠBut": 726,
      "Ġhere": 727,
      "Ġelect": 728,
      "ting": 729,
      "ates": 730,
      "ually": 731,
      "de": 732,
      "Ġreally": 733,
      "thing": 734,
      "Ġimp": 735,
      "Ġmay": 736,
      "Ġfact": 737,
      "Ġcons": 738,
      "Ġte": 739,
      "Ġidiot": 740,
      "resident": 741,
      "Ġlaw": 742,
      "Ġ$": 743,
      "ach": 744,
      "Ġvery": 745,
      "Ġpolit": 746,
      "Ġwhy": 747,
      "for": 748,
      "Ġwell": 749,
      "ah": 750,
      "Ġke": 751,
      "Ġfu": 752,
      "ĠV": 753,
      "ĠUS": 754,
      "Ġdec": 755,
      "amp": 756,
      "Ġcomm": 757,
      "??": 758,
      "Ġnever": 759,
      "fe": 760,
      "Ġcall": 761,
      "Ġsupport": 762,
      "Ġtake": 763,
      "ise": 764,
      "Ġsame": 765,
      "ial": 766,
      "ne": 767,
      "less": 768,
      "Ġacc": 769,
      "fter": 770,
      "Ġsaid": 771,
      "Ġbelie": 772,
      "pect": 773,
      "Ġinv": 774,
      "Ġro": 775,
      "ians": 776,
      "ĠThere": 777,
      "Ġdown": 778,
      "Ġperson": 779,
      "Ġcountry": 780,
      "Ġtw": 781,
      "ning": 782,
      "Ġalso": 783,
      "uss": 784,
      "ĠĠĠ": 785,
      "ĠCanada": 786,
      "Ġrec": 787,
      "ual": 788,
      "Ġwhere": 789,
      "Ġ.": 790,
      "Ġcor": 791,
      "hen": 792,
      "Ġday": 793,
      "ily": 794,
      "igh": 795,
      "iss": 796,
      "Ġexp": 797,
      "ĠHow": 798,
      "les": 799,
      "omet": 800,
      "Ġchan": 801,
      "blem": 802,
      "ative": 803,
      "Ġjob": 804,
      "ty": 805,
      "Ġworld": 806,
      "vel": 807,
      "Ġlong": 808,
      "ents": 809,
      "Ġbig": 810,
      "ask": 811,
      "irst": 812,
      "Ġread": 813,
      "Ġfe": 814,
      "ists": 815,
      "ĠNo": 816,
      "Ġass": 817,
      "ake": 818,
      "Ġpoint": 819,
      "Ġhapp": 820,
      "ww": 821,
      "ark": 822,
      "Ġstill": 823,
      "ath": 824,
      "ck": 825,
      "Ġsm": 826,
      "Ġits": 827,
      "ition": 828,
      "ful": 829,
      "Ġdef": 830,
      "ism": 831,
      "self": 832,
      "fore": 833,
      "Ġatt": 834,
      "ating": 835,
      "eg": 836,
      "Ġproblem": 837,
      "Ġinte": 838,
      "âĢĻ": 839,
      "ĠAn": 840,
      "con": 841,
      "enc": 842,
      "Ġleft": 843,
      "Ġdes": 844,
      "Ġbetter": 845,
      "ense": 846,
      "Ġind": 847,
      "kes": 848,
      "its": 849,
      "ars": 850,
      "alth": 851,
      "Ġi": 852,
      "Ġrem": 853,
      "Ġcare": 854,
      "ought": 855,
      "01": 856,
      "ved": 857,
      "Ġpublic": 858,
      "Ġ3": 859,
      "ib": 860,
      "Ġign": 861,
      "Ġtry": 862,
      "Ġbus": 863,
      "ĠAs": 864,
      "Ġfl": 865,
      "umb": 866,
      "Ġafter": 867,
      "Ġsy": 868,
      "Ġsomet": 869,
      "Ġpost": 870,
      "Ġob": 871,
      "ĠOb": 872,
      ".\"": 873,
      "illion": 874,
      "ince": 875,
      "Ġmed": 876,
      "Ġnothing": 877,
      "Ġev": 878,
      "Ġleg": 879,
      "Ġdoesn": 880,
      "ower": 881,
      "av": 882,
      "Ġput": 883,
      "Ġkeep": 884,
      "hed": 885,
      "Ġins": 886,
      "Ġthr": 887,
      "rest": 888,
      "Ã¤": 889,
      "Ġop": 890,
      "get": 891,
      "Ġlet": 892,
      "vers": 893,
      "urn": 894,
      "Ġgot": 895,
      "Ġsuch": 896,
      "cial": 897,
      "ason": 898,
      "ope": 899,
      "ama": 900,
      "read": 901,
      "Ġhel": 902,
      "ert": 903,
      "Ġdem": 904,
      "we": 905,
      "ible": 906,
      "Ġel": 907,
      "Ġreg": 908,
      "ock": 909,
      "Ġanother": 910,
      "Ġter": 911,
      "Ġcour": 912,
      "oss": 913,
      "ĠLi": 914,
      "ĠJust": 915,
      "Ġcost": 916,
      "Ġdif": 917,
      "ps": 918,
      "Ġplay": 919,
      "li": 920,
      "iness": 921,
      "ĠDon": 922,
      "ank": 923,
      "ave": 924,
      "Ġiss": 925,
      "Ġbefore": 926,
      "ution": 927,
      "Ġuse": 928,
      "Ġstart": 929,
      "ittle": 930,
      ":/": 931,
      "oth": 932,
      "Ġend": 933,
      "Ġsch": 934,
      "ĠAlask": 935,
      "://": 936,
      "gr": 937,
      "ics": 938,
      "xt": 939,
      "com": 940,
      "ern": 941,
      "cess": 942,
      "Ġguy": 943,
      "ats": 944,
      "Ġdidn": 945,
      "Ġshow": 946,
      "Ġsomething": 947,
      "'ve": 948,
      "Ġrun": 949,
      "form": 950,
      "cept": 951,
      "Ġlook": 952,
      "eral": 953,
      "Ġhtt": 954,
      "Ġfirst": 955,
      "Ġhelp": 956,
      "Ġent": 957,
      "Ġsim": 958,
      "Ġgreat": 959,
      "Ġkill": 960,
      "Ġseem": 961,
      "Ġfar": 962,
      "oll": 963,
      "Ġlot": 964,
      "ĠRep": 965,
      "ways": 966,
      "Ġrac": 967,
      "Ġbelieve": 968,
      "Ġchild": 969,
      "ĠNot": 970,
      "Ġmade": 971,
      "Ġanything": 972,
      "ational": 973,
      "here": 974,
      "Ġartic": 975,
      "Ġtal": 976,
      "ene": 977,
      "Ġlittle": 978,
      "imes": 979,
      "Ġsure": 980,
      "ĠWhy": 981,
      "Ġpar": 982,
      "Ġsub": 983,
      "yp": 984,
      "ouse": 985,
      "ĠCl": 986,
      "Ġfam": 987,
      "Ġwat": 988,
      "ject": 989,
      "ĠâĢ": 990,
      "ility": 991,
      "Ġlead": 992,
      "Ġlast": 993,
      "ĠIs": 994,
      "'ll": 995,
      "Ġagainst": 996,
      "old": 997,
      "ull": 998,
      "ased": 999,
      "ute": 1000,
      "\".": 1001,
      "az": 1002,
      "Ġsomeone": 1003,
      "stand": 1004,
      "Ġbusiness": 1005,
      "Ġmean": 1006,
      "ues": 1007,
      "stem": 1008,
      "Ġmat": 1009,
      "ying": 1010,
      "conom": 1011,
      "Ġthings": 1012,
      "Ġwhile": 1013,
      "ities": 1014,
      "Ġtwo": 1015,
      "du": 1016,
      "ts": 1017,
      "Ġche": 1018,
      "ction": 1019,
      "the": 1020,
      "anc": 1021,
      "Ġignor": 1022,
      "Ġbad": 1023,
      "Ġhome": 1024,
      "Ġcome": 1025,
      "air": 1026,
      "ren": 1027,
      "Ġcle": 1028,
      "ec": 1029,
      "ments": 1030,
      "Ġcar": 1031,
      "ives": 1032,
      "ĠObama": 1033,
      "Ġstop": 1034,
      "Ġfind": 1035,
      "led": 1036,
      "Ġprov": 1037,
      "ather": 1038,
      "Ġdoing": 1039,
      "Ġrel": 1040,
      "ai": 1041,
      "Ġ4": 1042,
      "Ġhigh": 1043,
      "Ġenough": 1044,
      "oot": 1045,
      "Ġever": 1046,
      "Ġlife": 1047,
      "Ġ5": 1048,
      "ĠUn": 1049,
      "Ġactually": 1050,
      "Ġadd": 1051,
      "Ġsystem": 1052,
      "ER": 1053,
      "Ġdiffer": 1054,
      "ize": 1055,
      "Ġvote": 1056,
      "Ġwar": 1057,
      "Ġhand": 1058,
      "Ġprot": 1059,
      "!!!!": 1060,
      "Ġtra": 1061,
      "uth": 1062,
      "man": 1063,
      "Ġold": 1064,
      "ably": 1065,
      "Ġgen": 1066,
      "beral": 1067,
      "Ġtell": 1068,
      "Ġnews": 1069,
      "ĠRe": 1070,
      "Ġsl": 1071,
      "Ġalways": 1072,
      "Ġresp": 1073,
      "ĠDem": 1074,
      "Ġagree": 1075,
      "ied": 1076,
      "Ġsur": 1077,
      "Ġeconom": 1078,
      "Ġpri": 1079,
      "Ġed": 1080,
      "Ġarticle": 1081,
      "Ġless": 1082,
      "uck": 1083,
      "Ġdone": 1084,
      "mb": 1085,
      "ĠRuss": 1086,
      "ĠRepublic": 1087,
      "ĠDo": 1088,
      "ither": 1089,
      "Ġmor": 1090,
      "Ġinst": 1091,
      "Ġwon": 1092,
      ").": 1093,
      "Ġmust": 1094,
      "Ġemp": 1095,
      "ices": 1096,
      "Ġschool": 1097,
      "Ġ...": 1098,
      "Ġhappen": 1099,
      "Ġaround": 1100,
      "Ġide": 1101,
      "arly": 1102,
      "ody": 1103,
      "Ġret": 1104,
      "orth": 1105,
      "gg": 1106,
      "day": 1107,
      "Ġmin": 1108,
      "aug": 1109,
      "ang": 1110,
      "Ġgive": 1111,
      "ĠPresident": 1112,
      "olog": 1113,
      "Ġplan": 1114,
      "Ġmon": 1115,
      "000": 1116,
      "Ġunderstand": 1117,
      "Ġser": 1118,
      "Ġchange": 1119,
      "Ġanyone": 1120,
      "Ġthrough": 1121,
      "OT": 1122,
      "pl": 1123,
      "ently": 1124,
      "Ġinterest": 1125,
      "ically": 1126,
      "Ġdri": 1127,
      "Ġfew": 1128,
      "ee": 1129,
      "ready": 1130,
      "lud": 1131,
      "Ġwithout": 1132,
      "Ġfree": 1133,
      "ention": 1134,
      "Ġill": 1135,
      "Ġhead": 1136,
      "lease": 1137,
      "Ġaway": 1138,
      "Ġfool": 1139,
      "Ġkid": 1140,
      "Ġrest": 1141,
      "Ġsince": 1142,
      "Ġfund": 1143,
      "Ġquest": 1144,
      "hip": 1145,
      "aid": 1146,
      "Ġhealth": 1147,
      "Ġalready": 1148,
      "Ġinvest": 1149,
      "Ġboth": 1150,
      "Ġimm": 1151,
      "ited": 1152,
      "ings": 1153,
      "Ġinter": 1154,
      "Ġstand": 1155,
      "Ġ,": 1156,
      "iew": 1157,
      "ash": 1158,
      "Ġreason": 1159,
      "imin": 1160,
      "ss": 1161,
      "ants": 1162,
      "urr": 1163,
      "Ġhard": 1164,
      "Ġfin": 1165,
      "Ġsec": 1166,
      "loy": 1167,
      "Ġneeds": 1168,
      "ĠAlaska": 1169,
      "Ġchar": 1170,
      "Ġopp": 1171,
      "Ġsimp": 1172,
      "Ġbest": 1173,
      "min": 1174,
      "Ġisn": 1175,
      "Ġref": 1176,
      "Ġcra": 1177,
      "ever": 1178,
      "lf": 1179,
      "Ġmight": 1180,
      "ump": 1181,
      "Ġtaxes": 1182,
      "Ġoil": 1183,
      "Ġph": 1184,
      "Ġwrong": 1185,
      "Ġinf": 1186,
      "arn": 1187,
      "ward": 1188,
      "Ġeff": 1189,
      "ead": 1190,
      "Ġcontin": 1191,
      "Ġpat": 1192,
      "Ġelse": 1193,
      "not": 1194,
      "Ġ&": 1195,
      "Ġword": 1196,
      "oh": 1197,
      "der": 1198,
      "ier": 1199,
      "deau": 1200,
      "Ġdie": 1201,
      "rem": 1202,
      "ĠAmerica": 1203,
      "Ġallow": 1204,
      "pr": 1205,
      "Ġet": 1206,
      "Ġfeel": 1207,
      "'d": 1208,
      "ĠĠĠĠ": 1209,
      "ald": 1210,
      "ific": 1211,
      "ertain": 1212,
      "Ġz": 1213,
      "Ġhum": 1214,
      "Ġthought": 1215,
      "ired": 1216,
      "Ġcompan": 1217,
      "Ġleast": 1218,
      "Ġpass": 1219,
      "Ġbeh": 1220,
      "Ġpolitical": 1221,
      "Ġnext": 1222,
      "ĠAll": 1223,
      "illary": 1224,
      "Ġlive": 1225,
      "jor": 1226,
      "osed": 1227,
      "Ġparty": 1228,
      "Ġmedia": 1229,
      "ĠMay": 1230,
      "ix": 1231,
      "Ġwom": 1232,
      "ration": 1233,
      "ending": 1234,
      "Ġrid": 1235,
      "Ġ201": 1236,
      "ets": 1237,
      "Ġpower": 1238,
      "Ġused": 1239,
      "ĠWhen": 1240,
      "ĠGo": 1241,
      "ĠTrudeau": 1242,
      "Ġkind": 1243,
      "Ġserv": 1244,
      "Ġpresident": 1245,
      "Ġplace": 1246,
      "Ġhope": 1247,
      "Ġconc": 1248,
      "IN": 1249,
      "ĠTH": 1250,
      "Ġdisc": 1251,
      "Ġcoll": 1252,
      "Ġloo": 1253,
      "vious": 1254,
      "Ġcomple": 1255,
      "ĠAmerican": 1256,
      "und": 1257,
      "ĠYour": 1258,
      "land": 1259,
      "Ġincre": 1260,
      "Ġwhite": 1261,
      "icul": 1262,
      "berals": 1263,
      ".....": 1264,
      "Ġelection": 1265,
      "ten": 1266,
      "ng": 1267,
      "rib": 1268,
      "Ġfamily": 1269,
      "oup": 1270,
      "bt": 1271,
      "Ġgl": 1272,
      "Ġwin": 1273,
      "Ġgetting": 1274,
      "ĠShe": 1275,
      "aim": 1276,
      "Ġbo": 1277,
      "ĠDemocr": 1278,
      "ex": 1279,
      "Ġlos": 1280,
      "Ġext": 1281,
      "Ġtrying": 1282,
      "ug": 1283,
      "Ġfail": 1284,
      "selves": 1285,
      "bably": 1286,
      "inton": 1287,
      "io": 1288,
      "wh": 1289,
      "Ġeveryone": 1290,
      "Ġunt": 1291,
      "ering": 1292,
      "Ġpop": 1293,
      "Ġmajor": 1294,
      "Ġcourse": 1295,
      "ait": 1296,
      "Ġracist": 1297,
      "ann": 1298,
      "Ġprof": 1299,
      "Ġyet": 1300,
      "Ġdeal": 1301,
      "Ġgun": 1302,
      "Ġmaking": 1303,
      "Ġmakes": 1304,
      "uring": 1305,
      "Ġissue": 1306,
      "ĠHillary": 1307,
      "Ġothers": 1308,
      "Ġetc": 1309,
      "ĠMr": 1310,
      "Ġ#": 1311,
      "Ġstr": 1312,
      "Ġhate": 1313,
      "stit": 1314,
      "Ġignorant": 1315,
      "ĠNow": 1316,
      "Ġcomments": 1317,
      "ĠCanadian": 1318,
      "ces": 1319,
      "Ġcontro": 1320,
      "Ġmind": 1321,
      "Ġstud": 1322,
      "Ġreport": 1323,
      "........": 1324,
      "ately": 1325,
      "Ġcut": 1326,
      "Ġgiv": 1327,
      "ness": 1328,
      "ines": 1329,
      "rupt": 1330,
      "itiz": 1331,
      "che": 1332,
      "ror": 1333,
      "Ġmark": 1334,
      "Ġwond": 1335,
      "Ġ19": 1336,
      "Ġcre": 1337,
      "Ġinclud": 1338,
      "ĠClinton": 1339,
      "ink": 1340,
      "Ġhist": 1341,
      "Ġemploy": 1342,
      "Ġquestion": 1343,
      "www": 1344,
      "ï¿": 1345,
      "Ġmillion": 1346,
      "acy": 1347,
      "aps": 1348,
      "ï¿½": 1349,
      "Ġcommun": 1350,
      "ms": 1351,
      "ĠSh": 1352,
      "ged": 1353,
      "use": 1354,
      "Ġsol": 1355,
      "ĠFor": 1356,
      "ederal": 1357,
      "ĠOh": 1358,
      "Ġeduc": 1359,
      "Ġes": 1360,
      "Ġfore": 1361,
      "ling": 1362,
      "ety": 1363,
      "Ġclaim": 1364,
      "ollow": 1365,
      "âĢĿ": 1366,
      "Ġaff": 1367,
      "ries": 1368,
      "Ġsign": 1369,
      "LL": 1370,
      "Ġname": 1371,
      "Ġpriv": 1372,
      "Ġsex": 1373,
      "Ġvi": 1374,
      "ĠOn": 1375,
      "Ã¼": 1376,
      "ĠMy": 1377,
      "oun": 1378,
      "ĠOr": 1379,
      "reed": 1380,
      "Ġcurr": 1381,
      "Ġprobably": 1382,
      "Ġstory": 1383,
      "Ġbuild": 1384,
      "Ġdam": 1385,
      "Ġlo": 1386,
      "resent": 1387,
      "Ġpolic": 1388,
      "Ġask": 1389,
      "ivil": 1390,
      "Ġchildren": 1391,
      "isl": 1392,
      "ner": 1393,
      "ys": 1394,
      "Ġmo": 1395,
      "ĠYes": 1396,
      "hetic": 1397,
      "arch": 1398,
      "Ġsaying": 1399,
      "ized": 1400,
      "Ġopin": 1401,
      "Ġeither": 1402,
      "Ġtrue": 1403,
      "ont": 1404,
      "Ġhttps": 1405,
      "Ġcamp": 1406,
      "ĠâĢľ": 1407,
      "Ġconf": 1408,
      "awai": 1409,
      "Ġpopul": 1410,
      "Ġcase": 1411,
      "enef": 1412,
      "Ġval": 1413,
      "ends": 1414,
      "Ġproper": 1415,
      "ivid": 1416,
      "ken": 1417,
      "atic": 1418,
      "Ġdumb": 1419,
      "Ġadv": 1420,
      "Ġmil": 1421,
      "Ġloc": 1422,
      "ĠWell": 1423,
      "Ġmatter": 1424,
      "Ġca": 1425,
      "body": 1426,
      "Ġdoll": 1427,
      "Ġfull": 1428,
      "Ġcity": 1429,
      "Ġdru": 1430,
      "OU": 1431,
      "rop": 1432,
      "Ġpos": 1433,
      "ny": 1434,
      "Ġuntil": 1435,
      "Ġrequ": 1436,
      "rect": 1437,
      "Ġeas": 1438,
      "Ġint": 1439,
      "Ġturn": 1440,
      "!!!": 1441,
      "ON": 1442,
      "ina": 1443,
      "Ġcitiz": 1444,
      "Ġprop": 1445,
      "Ġclass": 1446,
      "ĠQ": 1447,
      "Ġcertain": 1448,
      "uff": 1449,
      "Ġposs": 1450,
      "Ġlist": 1451,
      "Ġself": 1452,
      "line": 1453,
      "Ġsal": 1454,
      "omm": 1455,
      "Ġbenef": 1456,
      "Ġcomplete": 1457,
      "ÂŃ": 1458,
      "ĠBr": 1459,
      "Ġidiots": 1460,
      "Ġfollow": 1461,
      "Ġbill": 1462,
      "ĠHawai": 1463,
      "Ġlar": 1464,
      "Ġhaving": 1465,
      "Ġtrans": 1466,
      "Ġcalled": 1467,
      "Ġ6": 1468,
      "outh": 1469,
      "ĠFr": 1470,
      "ract": 1471,
      "uge": 1472,
      "Ġjobs": 1473,
      "Ġseems": 1474,
      "Ġthemselves": 1475,
      "Ġra": 1476,
      "Ġland": 1477,
      "Ġdep": 1478,
      "ency": 1479,
      "ote": 1480,
      "Ġsays": 1481,
      "Ġkids": 1482,
      "orn": 1483,
      "ween": 1484,
      "Ġguess": 1485,
      "Ġdifferent": 1486,
      "Ġmove": 1487,
      "Ġsmall": 1488,
      "Ġpoor": 1489,
      "Ġtimes": 1490,
      "Ġsit": 1491,
      "Ġbit": 1492,
      "Ġprotect": 1493,
      "arb": 1494,
      "lain": 1495,
      "Ġfun": 1496,
      "Ġcap": 1497,
      "Ġprodu": 1498,
      "Ġset": 1499,
      "Ġden": 1500,
      "ges": 1501,
      "umber": 1502,
      "Ġtoday": 1503,
      "ross": 1504,
      "Ġsk": 1505,
      "ta": 1506,
      "Ġdr": 1507,
      "ortun": 1508,
      "ards": 1509,
      "idence": 1510,
      "gu": 1511,
      "AT": 1512,
      "ypocr": 1513,
      "ik": 1514,
      "Ġlove": 1515,
      "Ġexper": 1516,
      "Ġago": 1517,
      "Ġincome": 1518,
      "Ġ9": 1519,
      "Ġilleg": 1520,
      "Ġlow": 1521,
      "Ġprom": 1522,
      "tty": 1523,
      "Ġtri": 1524,
      "Ġbetween": 1525,
      "Ġwonder": 1526,
      "Ġpaid": 1527,
      "Ġidea": 1528,
      "Ġmis": 1529,
      "haps": 1530,
      "imate": 1531,
      "mm": 1532,
      "ator": 1533,
      "arr": 1534,
      "Ġimport": 1535,
      "Ġblack": 1536,
      "Ġbud": 1537,
      "Ġequ": 1538,
      "Ġviol": 1539,
      "Ġabs": 1540,
      "ised": 1541,
      "ange": 1542,
      "Ġtot": 1543,
      "alk": 1544,
      "ior": 1545,
      "Ġbuy": 1546,
      "Ġfri": 1547,
      "RE": 1548,
      "atives": 1549,
      "Ġdou": 1550,
      "Ġmeans": 1551,
      "Ġpast": 1552,
      "Ġexpect": 1553,
      "ember": 1554,
      "ric": 1555,
      "Ġworking": 1556,
      "Ġmonth": 1557,
      "Ġpur": 1558,
      "Ġimmig": 1559,
      "ared": 1560,
      "used": 1561,
      "idd": 1562,
      "ĠGood": 1563,
      "sh": 1564,
      "Ġdist": 1565,
      "Ġsuc": 1566,
      "Ġhistory": 1567,
      "ðŁ": 1568,
      "Ġopen": 1569,
      "Ġve": 1570,
      "ane": 1571,
      "anks": 1572,
      "Ġfacts": 1573,
      "of": 1574,
      "Ġline": 1575,
      "ĠCanadians": 1576,
      "ĠMaybe": 1577,
      "gress": 1578,
      "Ġgrow": 1579,
      "Ġwee": 1580,
      "Ġlevel": 1581,
      "Ġvoted": 1582,
      "Ġhouse": 1583,
      "roll": 1584,
      "Ġmaybe": 1585,
      "Ġcontrol": 1586,
      "ision": 1587,
      "Ġpolitic": 1588,
      "Ġmarket": 1589,
      "Ġcho": 1590,
      "Ġliberal": 1591,
      "arm": 1592,
      "Ġoffice": 1593,
      "Ġhttp": 1594,
      "ĠAmericans": 1595,
      "eah": 1596,
      "Ġresult": 1597,
      "ted": 1598,
      "Ġeverything": 1599,
      "ĠDonald": 1600,
      "Ġ8": 1601,
      "omp": 1602,
      "Ġlaws": 1603,
      "ures": 1604,
      "Ġrather": 1605,
      "ality": 1606,
      "reg": 1607,
      "Ġside": 1608,
      "Ġwatch": 1609,
      "ature": 1610,
      "ators": 1611,
      "Ġexamp": 1612,
      "Ġlegisl": 1613,
      "Ġrespons": 1614,
      "lim": 1615,
      "Ġnon": 1616,
      "Ġgets": 1617,
      "sw": 1618,
      "Ġinform": 1619,
      "Ġsimply": 1620,
      "Ġlost": 1621,
      "Ġhuman": 1622,
      "Ġsocial": 1623,
      "Ġ10": 1624,
      "Ġinstead": 1625,
      "ered": 1626,
      "Ġyourself": 1627,
      "Ġsoci": 1628,
      "Ġcannot": 1629,
      "ĠLet": 1630,
      "ph": 1631,
      "Ġav": 1632,
      "where": 1633,
      "Ġwait": 1634,
      "aught": 1635,
      "Ġview": 1636,
      "Ġbecome": 1637,
      "ides": 1638,
      "),": 1639,
      "aking": 1640,
      "Ġbas": 1641,
      "Ġfound": 1642,
      "Ġtop": 1643,
      "Ġattack": 1644,
      "Ġmiss": 1645,
      "gram": 1646,
      "ĠAN": 1647,
      "Ġdet": 1648,
      "Ġstupidity": 1649,
      "cc": 1650,
      "Ġdire": 1651,
      "Ġmain": 1652,
      "unch": 1653,
      "Ġdemocr": 1654,
      "Ġhear": 1655,
      "ews": 1656,
      "Ġhypocr": 1657,
      "ĠBe": 1658,
      "por": 1659,
      "ler": 1660,
      "Ġjo": 1661,
      "Ġdays": 1662,
      "Ġdest": 1663,
      "velop": 1664,
      "stitution": 1665,
      "IS": 1666,
      "Ġ?": 1667,
      "Ġsense": 1668,
      "Ġcrimin": 1669,
      "ced": 1670,
      "Ġwhole": 1671,
      "gan": 1672,
      "Ġfol": 1673,
      "cially": 1674,
      "Ġmar": 1675,
      "Ġhold": 1676,
      "ider": 1677,
      "most": 1678,
      "yn": 1679,
      "ional": 1680,
      "ti": 1681,
      "Ġair": 1682,
      "Ġfire": 1683,
      "Ġpretty": 1684,
      "ĠOne": 1685,
      "full": 1686,
      "Ġonce": 1687,
      "Ġtrump": 1688,
      "ites": 1689,
      "ung": 1690,
      "ĠState": 1691,
      "ĠCon": 1692,
      "Ġsound": 1693,
      "Ġoffic": 1694,
      "gy": 1695,
      "Ġ--": 1696,
      "Ġthough": 1697,
      "**": 1698,
      "Ġgame": 1699,
      "Ġbased": 1700,
      "ton": 1701,
      "ins": 1702,
      "Ġwants": 1703,
      "hes": 1704,
      "ater": 1705,
      "Ġmod": 1706,
      "Ġopinion": 1707,
      "Ġusing": 1708,
      "Ġ7": 1709,
      "icht": 1710,
      "ivers": 1711,
      "ĠWho": 1712,
      "pay": 1713,
      "Ġgener": 1714,
      "app": 1715,
      "Ġ20": 1716,
      "Ġindust": 1717,
      "Ġsell": 1718,
      "Ġder": 1719,
      "Ġtalking": 1720,
      "ird": 1721,
      "Ġduring": 1722,
      "ruct": 1723,
      "ĠThese": 1724,
      "Ġliving": 1725,
      "ĠNOT": 1726,
      "Ġem": 1727,
      "Ġeng": 1728,
      "aign": 1729,
      "Ġseen": 1730,
      "ĠLe": 1731,
      "Ġwomen": 1732,
      "ï¿½ï¿½": 1733,
      "Ġaren": 1734,
      "ĠDe": 1735,
      "Ġcond": 1736,
      "----": 1737,
      "ases": 1738,
      "Ġeach": 1739,
      "Ġcorrect": 1740,
      "ĠTo": 1741,
      "Ġable": 1742,
      "Ġteam": 1743,
      "Ġcred": 1744,
      "Ġjud": 1745,
      "Ġobvious": 1746,
      "Ġcitizens": 1747,
      "ief": 1748,
      "Ġeconomy": 1749,
      "co": 1750,
      "Ġcrap": 1751,
      "Ġcomes": 1752,
      "Ġpathetic": 1753,
      "alf": 1754,
      "ĠPro": 1755,
      "Ġprogram": 1756,
      "actly": 1757,
      "ages": 1758,
      "Ġlegal": 1759,
      "ames": 1760,
      "fully": 1761,
      "Ġfut": 1762,
      "Ġprivate": 1763,
      "ĠPer": 1764,
      "ĠMan": 1765,
      "temp": 1766,
      "now": 1767,
      "Ġsw": 1768,
      "ĠEx": 1769,
      "Ġtruth": 1770,
      "itary": 1771,
      "orry": 1772,
      "Ġentire": 1773,
      "olute": 1774,
      "Ġfederal": 1775,
      "ĠAr": 1776,
      "iculous": 1777,
      "ĠAre": 1778,
      "ĠRepublican": 1779,
      "den": 1780,
      "ush": 1781,
      "minist": 1782,
      "Ġtaking": 1783,
      "Ġissues": 1784,
      "ĠTHE": 1785,
      "Ġfolks": 1786,
      "Ġnumber": 1787,
      "Ġpaying": 1788,
      "ison": 1789,
      "ĠAt": 1790,
      "Ġserious": 1791,
      "itor": 1792,
      "Ġrespect": 1793,
      "tern": 1794,
      "Ġpolice": 1795,
      "ops": 1796,
      "Ġbre": 1797,
      "Ġmess": 1798,
      "ret": 1799,
      "Ġcountries": 1800,
      "Ġcoming": 1801,
      "Ġtalk": 1802,
      "duc": 1803,
      "Ġer": 1804,
      "ream": 1805,
      "Ġcampaign": 1806,
      "Ġgoes": 1807,
      "pecially": 1808,
      "Ġdevelop": 1809,
      "ife": 1810,
      "Ġcosts": 1811,
      "Ġnor": 1812,
      "ĠLiberals": 1813,
      "Ġgiven": 1814,
      "oph": 1815,
      "\",": 1816,
      "ork": 1817,
      "Ġdog": 1818,
      "OP": 1819,
      "Ġappro": 1820,
      "ience": 1821,
      "ggest": 1822,
      "Ġcurrent": 1823,
      "Ġelected": 1824,
      "Ġcontinue": 1825,
      "Ġsci": 1826,
      "Ġexc": 1827,
      "Ġlikely": 1828,
      "Ġleaders": 1829,
      "Ġlooking": 1830,
      "Ġeffect": 1831,
      "ĠAny": 1832,
      "ĠRepublicans": 1833,
      "Ġdrug": 1834,
      "Ġansw": 1835,
      "Ġexample": 1836,
      "Ġpie": 1837,
      "ault": 1838,
      "ĠSome": 1839,
      "ale": 1840,
      "Ġterror": 1841,
      "Ġface": 1842,
      "ĠChina": 1843,
      "Ġdeath": 1844,
      "iron": 1845,
      "Ġnation": 1846,
      "verage": 1847,
      "Ġmajority": 1848,
      "ĠHawaii": 1849,
      "ided": 1850,
      "ING": 1851,
      "Ġwater": 1852,
      "Ġwouldn": 1853,
      "ĠRussia": 1854,
      "Ġevidence": 1855,
      "Ġconserv": 1856,
      "Ġfuture": 1857,
      "ural": 1858,
      "Ġneg": 1859,
      "iddle": 1860,
      "Ġbi": 1861,
      "ĠThen": 1862,
      "rist": 1863,
      "ots": 1864,
      "Ġdollars": 1865,
      "Ġimportant": 1866,
      ",,": 1867,
      "Ġsuggest": 1868,
      "Ġcompanies": 1869,
      "urance": 1870,
      "Ġwords": 1871,
      "Ġworth": 1872,
      "Ġcorrupt": 1873,
      "Ġlearn": 1874,
      "Ġrights": 1875,
      "Ġbring": 1876,
      "ctor": 1877,
      "Ġshoot": 1878,
      "Ġcent": 1879,
      "ands": 1880,
      "Ġsing": 1881,
      "Ġliar": 1882,
      "Ġaccount": 1883,
      "Ġinvestig": 1884,
      "Ġcand": 1885,
      "rew": 1886,
      "Ġregul": 1887,
      "Ġmet": 1888,
      "ains": 1889,
      "Ġargu": 1890,
      "Ġhous": 1891,
      "ĠGod": 1892,
      "Ġest": 1893,
      "Ġvoters": 1894,
      "bs": 1895,
      "Ġwent": 1896,
      "uslim": 1897,
      "Ġstay": 1898,
      "ĠBl": 1899,
      "ified": 1900,
      "ising": 1901,
      "ott": 1902,
      "Ġwasn": 1903,
      "orts": 1904,
      "ital": 1905,
      "Ġsad": 1906,
      "Ġproject": 1907,
      "go": 1908,
      "Ġcivil": 1909,
      "Ġaccept": 1910,
      "gust": 1911,
      "Ġap": 1912,
      "Ġhon": 1913,
      "Ġsick": 1914,
      "ĠMc": 1915,
      "Ġbudget": 1916,
      "ĠCong": 1917,
      "ging": 1918,
      "Ġcame": 1919,
      "ĠSen": 1920,
      "Ġhig": 1921,
      "Ġalong": 1922,
      "ibility": 1923,
      "Ġsent": 1924,
      "ES": 1925,
      "Ġhimself": 1926,
      "Ġproperty": 1927,
      "ished": 1928,
      "Ġbillion": 1929,
      "Ġintell": 1930,
      "ech": 1931,
      "ĠGl": 1932,
      "reen": 1933,
      "201": 1934,
      "OL": 1935,
      "ole": 1936,
      "Ġroad": 1937,
      "Ġmilitary": 1938,
      "ĠEvery": 1939,
      "aper": 1940,
      "Ġridiculous": 1941,
      "Ġthree": 1942,
      "Ġgas": 1943,
      "ences": 1944,
      "Ġmill": 1945,
      "atch": 1946,
      "Ġcol": 1947,
      "Ġmention": 1948,
      "Ġmeet": 1949,
      "Ġbull": 1950,
      "iter": 1951,
      "Ġrelig": 1952,
      "Ġillegal": 1953,
      "Ġanti": 1954,
      "AR": 1955,
      "ured": 1956,
      "ario": 1957,
      "ology": 1958,
      "ohn": 1959,
      "Ġconcern": 1960,
      "OR": 1961,
      "Ġhom": 1962,
      "ĠHar": 1963,
      "Ġcorpor": 1964,
      "Ġfair": 1965,
      "ĠLiberal": 1966,
      "Ġment": 1967,
      "Ġquite": 1968,
      "lus": 1969,
      "rain": 1970,
      "Ġlives": 1971,
      "Ġthinking": 1972,
      "Ġknows": 1973,
      "Ġbro": 1974,
      "Ġlim": 1975,
      "Ġthreat": 1976,
      "oint": 1977,
      "Ġinvol": 1978,
      "anger": 1979,
      "Ġplease": 1980,
      "iting": 1981,
      "Ġpe": 1982,
      "Ġspec": 1983,
      "Ġwing": 1984,
      "Ġlies": 1985,
      "arc": 1986,
      "Ġlarge": 1987,
      "enn": 1988,
      "Ġadminist": 1989,
      "ery": 1990,
      "Ġindivid": 1991,
      "50": 1992,
      "Ġreality": 1993,
      "Ġnational": 1994,
      "Ġeducation": 1995,
      "Ġfight": 1996,
      "Ġgroup": 1997,
      "Ġprotest": 1998,
      "Ġcandid": 1999,
      "Ġyes": 2000,
      "ĠPeople": 2001,
      "head": 2002,
      "Ġpres": 2003,
      "Ġadm": 2004,
      "Ġfall": 2005,
      "ĠHouse": 2006,
      "Ġinsurance": 2007,
      "Ġinformation": 2008,
      "Ġboy": 2009,
      "ĠCons": 2010,
      "US": 2011,
      "Ġpolicy": 2012,
      "gin": 2013,
      "Ġforeign": 2014,
      "ĠZ": 2015,
      "uthor": 2016,
      "Ġlocal": 2017,
      "Ġabsolute": 2018,
      "Ġclear": 2019,
      "ok": 2020,
      "ensive": 2021,
      "cent": 2022,
      "aff": 2023,
      "Ġweek": 2024,
      "The": 2025,
      "att": 2026,
      "ĠYOU": 2027,
      "Ġvict": 2028,
      "EN": 2029,
      "ield": 2030,
      "Ġrunning": 2031,
      "illy": 2032,
      "Ġteac": 2033,
      "Ġpersonal": 2034,
      "Ġshort": 2035,
      "reme": 2036,
      "aa": 2037,
      "Ġworse": 2038,
      "ĠSe": 2039,
      "Ġleave": 2040,
      "Ġmur": 2041,
      "Ġtaxpay": 2042,
      "Ġstates": 2043,
      "Ġbunch": 2044,
      "Ġpot": 2045,
      "Ġorder": 2046,
      "Ġproblems": 2047,
      "Ġsoon": 2048,
      "ĠDemocrats": 2049,
      "Ġhalf": 2050,
      "Ġones": 2051,
      "ĠPart": 2052,
      "Ġregard": 2053,
      "Ġfix": 2054,
      "Ġclose": 2055,
      "Ġbehind": 2056,
      "by": 2057,
      "Ġcult": 2058,
      "Ã¶": 2059,
      "Ġindustry": 2060,
      "pro": 2061,
      "Ġmass": 2062,
      "gusting": 2063,
      "come": 2064,
      "Ġform": 2065,
      "aud": 2066,
      "Ġalmost": 2067,
      "side": 2068,
      "Ġattemp": 2069,
      "Ġdefin": 2070,
      "ED": 2071,
      "ony": 2072,
      "Ġlying": 2073,
      "ĠInd": 2074,
      "Ġstat": 2075,
      "gest": 2076,
      "Ġfac": 2077,
      "Ġtook": 2078,
      "Ġhat": 2079,
      "Ġcertainly": 2080,
      "eal": 2081,
      "ury": 2082,
      "ĠHis": 2083,
      "Ġexactly": 2084,
      "istic": 2085,
      "Ġ100": 2086,
      "ĠPlease": 2087,
      "Ġexcept": 2088,
      "els": 2089,
      "Ġcompany": 2090,
      "ĠWas": 2091,
      "Ġhappened": 2092,
      "Ġyoung": 2093,
      "ĠWith": 2094,
      "Ġremember": 2095,
      "lish": 2096,
      "Ġrate": 2097,
      "Ġloser": 2098,
      "Ġaw": 2099,
      "ades": 2100,
      "like": 2101,
      "Ġsurpr": 2102,
      "Ġespecially": 2103,
      "Ġsociety": 2104,
      "rump": 2105,
      "ended": 2106,
      "Ġcrime": 2107,
      "uation": 2108,
      "arbage": 2109,
      "Ġmoron": 2110,
      "ization": 2111,
      "ral": 2112,
      "aring": 2113,
      "ĠWhite": 2114,
      "Ġsecond": 2115,
      "ient": 2116,
      "Ġsour": 2117,
      "Ġanswer": 2118,
      "Ġmen": 2119,
      "Ġdead": 2120,
      "Ġprocess": 2121,
      "Ġguys": 2122,
      "Ġfig": 2123,
      "Ġpoliticians": 2124,
      "ĠPut": 2125,
      "Ġterm": 2126,
      "Ġlack": 2127,
      "urity": 2128,
      "ĠDid": 2129,
      "ees": 2130,
      "Ġtroll": 2131,
      "no": 2132,
      "Ġtold": 2133,
      "Ġexist": 2134,
      "Ġauthor": 2135,
      "atever": 2136,
      "Ġreturn": 2137,
      "Ġpiece": 2138,
      "Ġamount": 2139,
      "ĠNe": 2140,
      "Ġparents": 2141,
      "ĠSp": 2142,
      "ĠBC": 2143,
      "ĠThank": 2144,
      "Ġinfl": 2145,
      "ax": 2146,
      "Ġrev": 2147,
      "ĠJohn": 2148,
      "Ġdirect": 2149,
      "Ġ!": 2150,
      "ĠWhere": 2151,
      "Ġris": 2152,
      "arth": 2153,
      "Ġstuff": 2154,
      "ĠOf": 2155,
      "Ġdra": 2156,
      "Ġemb": 2157,
      "Ġcommunity": 2158,
      "Ġpred": 2159,
      "Ġafford": 2160,
      "Ġrecord": 2161,
      "oe": 2162,
      "Ġnice": 2163,
      "ilt": 2164,
      "Ġein": 2165,
      "obe": 2166,
      "Ġhour": 2167,
      "Ġsingle": 2168,
      "ffic": 2169,
      "itive": 2170,
      "Ġdue": 2171,
      "Ġoften": 2172,
      "Ġdisag": 2173,
      "uf": 2174,
      "Ġtest": 2175,
      "ĠUSA": 2176,
      "Ġincluding": 2177,
      "Ġsubs": 2178,
      "Ġfood": 2179,
      "Ġcrit": 2180,
      "ĠRussian": 2181,
      "Ġincrease": 2182,
      "Ġlie": 2183,
      "Ġspend": 2184,
      "Ġ50": 2185,
      "Ġdiscuss": 2186,
      "ĠCongress": 2187,
      "Ġrail": 2188,
      "Ġintern": 2189,
      "Ġmemb": 2190,
      "Ġwanted": 2191,
      "Ġpoll": 2192,
      "urther": 2193,
      "Ġcow": 2194,
      "Ġrece": 2195,
      "Ġlonger": 2196,
      "Ġmembers": 2197,
      "Ġfake": 2198,
      "Ġrese": 2199,
      "Ġprovide": 2200,
      "Ġconst": 2201,
      "Ġbrain": 2202,
      "IT": 2203,
      "Ġcause": 2204,
      "oron": 2205,
      "ĠIS": 2206,
      "Ġist": 2207,
      "ĠAct": 2208,
      "Ġocc": 2209,
      "ĠGet": 2210,
      "Ġtaken": 2211,
      "Ġspending": 2212,
      "Ġgarbage": 2213,
      "ĠKe": 2214,
      "Ġconsider": 2215,
      "ĠAm": 2216,
      "Ġsimple": 2217,
      "par": 2218,
      "ĠNO": 2219,
      "Ġdoubt": 2220,
      "Ġrich": 2221,
      "ify": 2222,
      "Ġtyp": 2223,
      "Ġenv": 2224,
      "Ġrefer": 2225,
      "hers": 2226,
      "erve": 2227,
      "ĠPr": 2228,
      "ude": 2229,
      "Ġprice": 2230,
      "Ġtre": 2231,
      "port": 2232,
      "br": 2233,
      "Ġpossible": 2234,
      "cl": 2235,
      "Ġfav": 2236,
      "ĠStates": 2237,
      "Ġallowed": 2238,
      "Ġcheck": 2239,
      "asc": 2240,
      "ĠMuslim": 2241,
      "aut": 2242,
      "Ġproduct": 2243,
      "Ġheard": 2244,
      "ĠMost": 2245,
      "ĠOnt": 2246,
      "ipp": 2247,
      "Ġneeded": 2248,
      "Ġcompet": 2249,
      "Ġvoting": 2250,
      "Ġblame": 2251,
      "Ġnicht": 2252,
      "ĠUnited": 2253,
      "Ġmillions": 2254,
      "Ġhuge": 2255,
      "ĠNorth": 2256,
      "Ġchoice": 2257,
      "ĠEven": 2258,
      "Ġspeak": 2259,
      "AS": 2260,
      "Ġconv": 2261,
      "ighb": 2262,
      "Ġpopulation": 2263,
      "af": 2264,
      "lev": 2265,
      "Ġappear": 2266,
      "joy": 2267,
      "Ġver": 2268,
      "ĠAg": 2269,
      "ming": 2270,
      "Ġstre": 2271,
      "ĠGr": 2272,
      "Ġeconomic": 2273,
      "Ġhor": 2274,
      "Ġdeb": 2275,
      "Ġdifference": 2276,
      "Ġcriminal": 2277,
      "Ġwealth": 2278,
      "......": 2279,
      "hr": 2280,
      "Ġtotal": 2281,
      "Ġstarted": 2282,
      "Ġposition": 2283,
      "Ġdestro": 2284,
      "Ġarea": 2285,
      "???": 2286,
      "Ġservice": 2287,
      "oud": 2288,
      "onsense": 2289,
      "Ġspeech": 2290,
      "Ġrepresent": 2291,
      "rict": 2292,
      "uts": 2293,
      "Ġkilled": 2294,
      "med": 2295,
      "oid": 2296,
      "Ġvis": 2297,
      "aster": 2298,
      "obal": 2299,
      "Ġmiddle": 2300,
      "itting": 2301,
      "Ġcourt": 2302,
      "AL": 2303,
      "oose": 2304,
      "Ġrepe": 2305,
      "Ġpract": 2306,
      "Ġmem": 2307,
      "DP": 2308,
      "Ġclimate": 2309,
      "ÂŃÂŃ": 2310,
      "Ġvictim": 2311,
      "Ġtreat": 2312,
      "ilar": 2313,
      "ows": 2314,
      "Ġclearly": 2315,
      "Ġgone": 2316,
      "Ġcommon": 2317,
      "ined": 2318,
      "ister": 2319,
      "Ġclown": 2320,
      "ĠChrist": 2321,
      "Ġcompletely": 2322,
      "Ġmonths": 2323,
      "aining": 2324,
      "Ġbank": 2325,
      "Ġdanger": 2326,
      "Ġneighb": 2327,
      "Ġcoup": 2328,
      "Ġpress": 2329,
      "ĠSch": 2330,
      "Ġwithin": 2331,
      "Ġwaste": 2332,
      "zy": 2333,
      "Ġlaug": 2334,
      "Ġworks": 2335,
      "ironment": 2336,
      "Ġoper": 2337,
      "Ġhur": 2338,
      "ĠThanks": 2339,
      "ned": 2340,
      "uro": 2341,
      "itted": 2342,
      "Ġhell": 2343,
      "Ġowners": 2344,
      "Ġignore": 2345,
      "Ġexperience": 2346,
      "__": 2347,
      "ĠGOP": 2348,
      "ĠSc": 2349,
      "ĠOntario": 2350,
      "uses": 2351,
      "Ġstatement": 2352,
      "Ġrepl": 2353,
      "ability": 2354,
      "Ġann": 2355,
      "Ġorgan": 2356,
      "Ġwhether": 2357,
      "Ġwoman": 2358,
      "Ġhousing": 2359,
      "ium": 2360,
      "ĠBill": 2361,
      "Ġunf": 2362,
      "Ġsupporters": 2363,
      "ipe": 2364,
      "onse": 2365,
      "Ġshut": 2366,
      "asing": 2367,
      "IC": 2368,
      "ĠYeah": 2369,
      "ster": 2370,
      "ĠAd": 2371,
      "Ġdebt": 2372,
      "reedom": 2373,
      "Ġlower": 2374,
      "Ġfriends": 2375,
      "Ġhigher": 2376,
      "more": 2377,
      "Ġopt": 2378,
      "itions": 2379,
      "na": 2380,
      "ĠNew": 2381,
      "Ġsus": 2382,
      "Ġir": 2383,
      "ening": 2384,
      "Ġrent": 2385,
      "ourn": 2386,
      "Ġknew": 2387,
      "Ġlose": 2388,
      "exic": 2389,
      "aks": 2390,
      "isc": 2391,
      "Ġdecision": 2392,
      "lam": 2393,
      "Ġlight": 2394,
      "Ġintellig": 2395,
      "Ġsuccess": 2396,
      "ball": 2397,
      "Ġnight": 2398,
      "ĠHowever": 2399,
      "hood": 2400,
      "Ġnonsense": 2401,
      "olit": 2402,
      "ĠBec": 2403,
      "Ġtrust": 2404,
      "Ġpolitics": 2405,
      "Ġbehav": 2406,
      "Ġreading": 2407,
      "ox": 2408,
      "Ġwhatever": 2409,
      "izing": 2410,
      "Ġwish": 2411,
      "Ġtown": 2412,
      "ĠComm": 2413,
      "Ġ200": 2414,
      "Ġ30": 2415,
      "ĠLike": 2416,
      "Ġball": 2417,
      "Ġsituation": 2418,
      "20": 2419,
      "Ġshows": 2420,
      "Ġfamil": 2421,
      "igin": 2422,
      "rants": 2423,
      "Ġbur": 2424,
      "Ġspecial": 2425,
      "AC": 2426,
      "Ġfine": 2427,
      "Ġcontrib": 2428,
      "ruction": 2429,
      "Ġtrade": 2430,
      "Ġthous": 2431,
      "acking": 2432,
      "Ġoppos": 2433,
      "regon": 2434,
      "ters": 2435,
      "str": 2436,
      "right": 2437,
      "ays": 2438,
      "Ġlog": 2439,
      "ĠBecause": 2440,
      "iet": 2441,
      "ana": 2442,
      "Ġsuper": 2443,
      "Ġspent": 2444,
      "Ġliberals": 2445,
      "ĠOur": 2446,
      "Ġmouth": 2447,
      "ĠMexic": 2448,
      "Ġchance": 2449,
      "iversity": 2450,
      "Ġadministration": 2451,
      "Ġfear": 2452,
      "ĠHarper": 2453,
      "==": 2454,
      "Ġcomplain": 2455,
      "Ġfoot": 2456,
      "ĠThose": 2457,
      "Ġbar": 2458,
      "Ġhit": 2459,
      "Ġincomp": 2460,
      "Ġrules": 2461,
      "Ġbuilding": 2462,
      "Ġabsolutely": 2463,
      "ĠTr": 2464,
      "urch": 2465,
      "Ġshare": 2466,
      "Ġtruly": 2467,
      "Ġevent": 2468,
      "Ġdisagree": 2469,
      "oon": 2470,
      "Ġbase": 2471,
      "using": 2472,
      "ergy": 2473,
      "ĠMe": 2474,
      "ession": 2475,
      "Ġknown": 2476,
      "arl": 2477,
      "rible": 2478,
      "Ġschools": 2479,
      "ories": 2480,
      "Ġtech": 2481,
      "Ġbab": 2482,
      "iding": 2483,
      "Ġsold": 2484,
      "ĠAnother": 2485,
      "Ġactions": 2486,
      "Ġcalling": 2487,
      "10": 2488,
      "rog": 2489,
      "Ġperhaps": 2490,
      "Ġaddress": 2491,
      "Ġeasy": 2492,
      "Ġtakes": 2493,
      "Ġresour": 2494,
      "ission": 2495,
      "sec": 2496,
      "Ġdisgusting": 2497,
      "Ġenvironment": 2498,
      "cil": 2499,
      "ĠParty": 2500,
      "Ġty": 2501,
      "Ġsever": 2502,
      "ĠOregon": 2503,
      "Ġcouldn": 2504,
      "ĠOnly": 2505,
      "Ġrealize": 2506,
      "Ġstrong": 2507,
      "fect": 2508,
      "erb": 2509,
      "Ġreven": 2510,
      "Ġactual": 2511,
      "Ġlab": 2512,
      "ĠHere": 2513,
      "Ġprices": 2514,
      "ounds": 2515,
      "Ġservices": 2516,
      "><": 2517,
      "vent": 2518,
      "ĠAf": 2519,
      "Ġheart": 2520,
      "ĠMore": 2521,
      "Ġsafe": 2522,
      "ĠAlso": 2523,
      "ledge": 2524,
      "Ġcoun": 2525,
      "irc": 2526,
      "ĠFirst": 2527,
      "Ġmist": 2528,
      "ĠKore": 2529,
      "ĠPerhaps": 2530,
      "owing": 2531,
      "Ġguns": 2532,
      "Ġbenefit": 2533,
      "Ġey": 2534,
      "Ġmult": 2535,
      "ĠMed": 2536,
      "Ġsen": 2537,
      "Ġexplain": 2538,
      "ĠDoes": 2539,
      "Ġworkers": 2540,
      "ege": 2541,
      "Ġpick": 2542,
      "alse": 2543,
      "Ġresponse": 2544,
      "gether": 2545,
      "aving": 2546,
      "ĠCome": 2547,
      "ney": 2548,
      "Ġclean": 2549,
      "Ġfurther": 2550,
      "ĠWow": 2551,
      "ĠQu": 2552,
      "iver": 2553,
      "Ġdas": 2554,
      "Ġabove": 2555,
      "ried": 2556,
      "Ġfools": 2557,
      "Ġrisk": 2558,
      "itten": 2559,
      "ĠRight": 2560,
      "Ġsupposed": 2561,
      "Ġenjoy": 2562,
      "ials": 2563,
      "Ġmot": 2564,
      "ĠSec": 2565,
      "Ã¼r": 2566,
      "ĠConserv": 2567,
      "Ġmedical": 2568,
      "Ġ:": 2569,
      "care": 2570,
      "Ġrace": 2571,
      "Ġnecess": 2572,
      "ume": 2573,
      "oke": 2574,
      "amed": 2575,
      "Ġsave": 2576,
      "Ġcontract": 2577,
      "Ġvalue": 2578,
      "orage": 2579,
      "Ġcollect": 2580,
      "Ġemployees": 2581,
      "sy": 2582,
      "Ġage": 2583,
      "Ġpercent": 2584,
      "akes": 2585,
      "Ġdesc": 2586,
      "Ġargument": 2587,
      "Ġresearch": 2588,
      "ĠSy": 2589,
      "Ġrap": 2590,
      "aged": 2591,
      "Ġimpro": 2592,
      "iod": 2593,
      "lement": 2594,
      "Ġgeneral": 2595,
      "Ġstudents": 2596,
      "Ġsexual": 2597,
      "Ġfriend": 2598,
      "Ġimmigration": 2599,
      "Ġleader": 2600,
      "Ġsuck": 2601,
      "Ġvotes": 2602,
      "wise": 2603,
      "ĠBy": 2604,
      "ender": 2605,
      "ournal": 2606,
      "how": 2607,
      "Ġuh": 2608,
      "ibly": 2609,
      "Ġhomeless": 2610,
      "urope": 2611,
      "Ġseveral": 2612,
      "yond": 2613,
      "Ġcouple": 2614,
      "off": 2615,
      "org": 2616,
      "Ġrepublic": 2617,
      "Ġgiving": 2618,
      "ĠCity": 2619,
      "arently": 2620,
      "Ġitself": 2621,
      "wards": 2622,
      "itch": 2623,
      "Ġwilling": 2624,
      "Ġplac": 2625,
      "ails": 2626,
      "Ġhappens": 2627,
      "ances": 2628,
      "ĠWest": 2629,
      "Ġalone": 2630,
      "Ġinvolved": 2631,
      "Ġincompet": 2632,
      "ises": 2633,
      "Ġattention": 2634,
      "Ġevil": 2635,
      "Ġfailed": 2636,
      "Ġasked": 2637,
      "ially": 2638,
      "Ġpresent": 2639,
      "Ġresident": 2640,
      "Ġhands": 2641,
      "emp": 2642,
      "ones": 2643,
      "ĠPutin": 2644,
      "Ġaverage": 2645,
      "Ġban": 2646,
      "Ġsubject": 2647,
      "Ġfinan": 2648,
      "Ġjudge": 2649,
      "force": 2650,
      "lt": 2651,
      "Ġpun": 2652,
      "Ġpull": 2653,
      "Ġrates": 2654,
      "ĠGreat": 2655,
      "Ġroom": 2656,
      "Ġavail": 2657,
      "val": 2658,
      "Ġtrash": 2659,
      "ĠJustin": 2660,
      "Ġredu": 2661,
      "Ġsubsid": 2662,
      "just": 2663,
      "Ġwalk": 2664,
      "Ġbord": 2665,
      "omb": 2666,
      "Ġut": 2667,
      "Ġnumb": 2668,
      "Ġbenefits": 2669,
      "Ġcandidate": 2670,
      "Ġlooks": 2671,
      "Ġdamn": 2672,
      "Ġhaven": 2673,
      "Ġhonest": 2674,
      "ata": 2675,
      "Ġaction": 2676,
      "oral": 2677,
      "Ġfre": 2678,
      "Ġfil": 2679,
      "icult": 2680,
      "ĠCol": 2681,
      "ording": 2682,
      "Ġdemand": 2683,
      "utes": 2684,
      "ĠST": 2685,
      "ained": 2686,
      "ĠConstitution": 2687,
      "Ġscience": 2688,
      "asons": 2689,
      "ĠEurope": 2690,
      "Ġthinks": 2691,
      "Ġobviously": 2692,
      "oronto": 2693,
      "Ġwall": 2694,
      "Ġdrive": 2695,
      "ET": 2696,
      "ID": 2697,
      "Ġcover": 2698,
      "VER": 2699,
      "Ġtogether": 2700,
      "Ġmom": 2701,
      "Ġoutside": 2702,
      "hington": 2703,
      "Ġsaw": 2704,
      "Ġgave": 2705,
      "Ġparticul": 2706,
      "Ġworked": 2707,
      "ortunately": 2708,
      "Ġviolence": 2709,
      "\"?": 2710,
      "my": 2711,
      "Ġanim": 2712,
      "ogn": 2713,
      "Ġcru": 2714,
      "Ġcry": 2715,
      "ĠMar": 2716,
      "ĠDen": 2717,
      "Ġhappy": 2718,
      "ched": 2719,
      "Ġacross": 2720,
      "hic": 2721,
      "ze": 2722,
      "Ġopportun": 2723,
      "Ġbeyond": 2724,
      "Ġfunny": 2725,
      "Ġresponsible": 2726,
      "set": 2727,
      "Ġimag": 2728,
      "lo": 2729,
      "ĠAfter": 2730,
      "Ġgovern": 2731,
      "Ġnat": 2732,
      "irt": 2733,
      "Ġconservative": 2734,
      "Ġfoc": 2735,
      "Ġjail": 2736,
      "ires": 2737,
      "Ġkilling": 2738,
      "Ġbreak": 2739,
      "Ġfront": 2740,
      "Ġenergy": 2741,
      "hh": 2742,
      "ero": 2743,
      "Ġpers": 2744,
      "Ġok": 2745,
      "Ġforget": 2746,
      "une": 2747,
      "Ġsmart": 2748,
      "you": 2749,
      "Ġdesp": 2750,
      "Ġcharge": 2751,
      "Ġstep": 2752,
      "Ġwrite": 2753,
      "ived": 2754,
      "Ġunless": 2755,
      "Ġfamilies": 2756,
      "Ġweap": 2757,
      "Ġpolicies": 2758,
      "Ġbal": 2759,
      "Ġstra": 2760,
      "son": 2761,
      "Ġaut": 2762,
      "ĠTw": 2763,
      "ĠLOL": 2764,
      "Ġworst": 2765,
      "Ġbuilt": 2766,
      "Ġplaying": 2767,
      "Ġprogress": 2768,
      "Ġfunding": 2769,
      "Ġtried": 2770,
      "eds": 2771,
      "Ġstaff": 2772,
      "Ġsuff": 2773,
      "Ġbegin": 2774,
      "Ġluck": 2775,
      "ĠIts": 2776,
      "????": 2777,
      "Ġbigot": 2778,
      "Ġcreated": 2779,
      "Ġsilly": 2780,
      "Ġways": 2781,
      "Ġsecurity": 2782,
      "erk": 2783,
      "Ġpen": 2784,
      "ĠWH": 2785,
      "Ġforce": 2786,
      "Ġignorance": 2787,
      "ading": 2788,
      "mal": 2789,
      "!!!!!!!!": 2790,
      "Ġinteresting": 2791,
      "ining": 2792,
      "Ġcreat": 2793,
      "Ġlater": 2794,
      "ĠWill": 2795,
      "Ġidiotic": 2796,
      "Ġred": 2797,
      "ĠGer": 2798,
      "Ġindividual": 2799,
      "Ġfreedom": 2800,
      "Ġfalse": 2801,
      "Ġamong": 2802,
      "Ġglobal": 2803,
      "Ġnumbers": 2804,
      "ructure": 2805,
      "Ġavailable": 2806,
      "Ġtar": 2807,
      "lear": 2808,
      "iff": 2809,
      "arter": 2810,
      "ĠGu": 2811,
      "Ġpurp": 2812,
      "cr": 2813,
      "ĠWhile": 2814,
      "Ġperfect": 2815,
      "Ġpoints": 2816,
      "ĠAlaskans": 2817,
      "Ġwer": 2818,
      "Ġpain": 2819,
      "Ġfour": 2820,
      "ĠToronto": 2821,
      "Ġorigin": 2822,
      "Ġ15": 2823,
      "chorage": 2824,
      "ĠPM": 2825,
      "Ġmanage": 2826,
      "Ġquick": 2827,
      ",\"": 2828,
      "oci": 2829,
      "ĠAND": 2830,
      "Ġinde": 2831,
      "ential": 2832,
      "ĠPat": 2833,
      "ortion": 2834,
      "Ġdestroy": 2835,
      "Ġtechn": 2836,
      "Ġaccess": 2837,
      "Ġinsult": 2838,
      "Ġsorry": 2839,
      "ills": 2840,
      "Ġvac": 2841,
      "Ġdefic": 2842,
      "Ġflag": 2843,
      "cks": 2844,
      "wing": 2845,
      "Ġda": 2846,
      "Ġdecades": 2847,
      "Ġdiff": 2848,
      "Ġtotally": 2849,
      "Ġjoke": 2850,
      "Ġdangerous": 2851,
      ".)": 2852,
      "uh": 2853,
      "Ġloss": 2854,
      "antly": 2855,
      "arrass": 2856,
      "cell": 2857,
      "Ġste": 2858,
      "ooks": 2859,
      "iction": 2860,
      "Ġimpact": 2861,
      "11": 2862,
      "ĠCal": 2863,
      "tion": 2864,
      "upp": 2865,
      "Ġcars": 2866,
      "Ġinn": 2867,
      "ĠPar": 2868,
      "Ġobs": 2869,
      "Ġcrazy": 2870,
      "Ġmov": 2871,
      "Ġtaxpayers": 2872,
      "Ġcirc": 2873,
      "Ġshot": 2874,
      "ĠAlber": 2875,
      "ls": 2876,
      "ĠToo": 2877,
      "enda": 2878,
      "ĠFl": 2879,
      "action": 2880,
      "ĠAC": 2881,
      "Ġdriving": 2882,
      "Ġsales": 2883,
      "alt": 2884,
      "Ġstore": 2885,
      "ively": 2886,
      "ĠEng": 2887,
      "bec": 2888,
      "Ġdeter": 2889,
      ".âĢĿ": 2890,
      "ĠðŁ": 2891,
      "Ġbecom": 2892,
      "Ġ40": 2893,
      "Ġsort": 2894,
      "Ġwind": 2895,
      "Ġzu": 2896,
      "undred": 2897,
      "Ġtype": 2898,
      "Ġreasons": 2899,
      "Ġshame": 2900,
      "Ġcommit": 2901,
      "Ġsimilar": 2902,
      "ĠMcC": 2903,
      "Ġmit": 2904,
      "Ġge": 2905,
      "key": 2906,
      "iring": 2907,
      "Ġusual": 2908,
      "ĠHey": 2909,
      "Ġwritten": 2910,
      "ahah": 2911,
      "Ġprofit": 2912,
      "Ġdev": 2913,
      "Ġboard": 2914,
      "fl": 2915,
      "Ġmal": 2916,
      "cip": 2917,
      "ĠReally": 2918,
      "ropri": 2919,
      "'.": 2920,
      "LE": 2921,
      "MP": 2922,
      "me": 2923,
      "Ġcreate": 2924,
      "Ġsolution": 2925,
      "icip": 2926,
      "ament": 2927,
      "Ġfigure": 2928,
      "Ġlate": 2929,
      "Ġrequire": 2930,
      "got": 2931,
      "Ġ....": 2932,
      "ĠNDP": 2933,
      "Ġrevenue": 2934,
      "BC": 2935,
      "ij": 2936,
      "well": 2937,
      "isions": 2938,
      "omin": 2939,
      "sequ": 2940,
      "Ġprefer": 2941,
      "Ġminor": 2942,
      "Ġfavor": 2943,
      "Ġbehavior": 2944,
      "ped": 2945,
      "Ġce": 2946,
      "Ġforward": 2947,
      "Ġactiv": 2948,
      "ĠSorry": 2949,
      "azi": 2950,
      "ike": 2951,
      "Ġformer": 2952,
      "Ġembarrass": 2953,
      "Ġbook": 2954,
      "Ġhy": 2955,
      "Ġmeas": 2956,
      "Ġchoose": 2957,
      "Ġdesign": 2958,
      "Ġtravel": 2959,
      "ĠGlobe": 2960,
      "Ġident": 2961,
      "ĠSad": 2962,
      "ĠAnchorage": 2963,
      "Ġthousands": 2964,
      "ĠChe": 2965,
      "ĠMany": 2966,
      "Ġeth": 2967,
      "ring": 2968,
      "inc": 2969,
      "Ġfasc": 2970,
      "Ġoh": 2971,
      "Ġenc": 2972,
      "Ġleadership": 2973,
      "Ġcur": 2974,
      "Ġfill": 2975,
      "seless": 2976,
      "Ġfinancial": 2977,
      "Ġdeg": 2978,
      "Ġlawy": 2979,
      "Ġfinally": 2980,
      "ĠKorea": 2981,
      "over": 2982,
      "Ġvehic": 2983,
      "oups": 2984,
      "ĠTO": 2985,
      "Ġdeep": 2986,
      "Ġagenda": 2987,
      "ĠDO": 2988,
      "Ġrecogn": 2989,
      "Ġretire": 2990,
      "ĠWashington": 2991,
      "bl": 2992,
      "cu": 2993,
      "uals": 2994,
      "Ġposts": 2995,
      "Ġfat": 2996,
      "Ġfly": 2997,
      "let": 2998,
      "ĠCount": 2999,
      "Ġchanged": 3000,
      "Ġearth": 3001,
      "Ġrad": 3002,
      "ĠLook": 3003,
      "ĠEn": 3004,
      "aughter": 3005,
      "Ġear": 3006,
      "Ġprison": 3007,
      "Ġdifficult": 3008,
      "Ġhundred": 3009,
      "Ġcapital": 3010,
      "Ġpipe": 3011,
      "Ġground": 3012,
      "Ġminim": 3013,
      "ĠGovernment": 3014,
      "Ġinvestigation": 3015,
      "Ġsend": 3016,
      "Ġearly": 3017,
      "Ġareas": 3018,
      "artment": 3019,
      "oooo": 3020,
      "Ġextreme": 3021,
      "AD": 3022,
      "Ġexec": 3023,
      "Ġhowever": 3024,
      "Ġbiggest": 3025,
      "Ġdefend": 3026,
      "ĠIslam": 3027,
      "ĠDis": 3028,
      "Ġanyway": 3029,
      "ĠStupid": 3030,
      "Ġsignific": 3031,
      "Ġresources": 3032,
      "?\"": 3033,
      "but": 3034,
      "ki": 3035,
      "Ġperiod": 3036,
      "Ġcarry": 3037,
      "Ġtelling": 3038,
      "FD": 3039,
      "ron": 3040,
      "Ġweak": 3041,
      "Ġfunds": 3042,
      "Ġrefuge": 3043,
      "hold": 3044,
      "nect": 3045,
      "Ġyeah": 3046,
      "alleng": 3047,
      "ĠRE": 3048,
      "Ġgroups": 3049,
      "Ġcollege": 3050,
      "bel": 3051,
      "work": 3052,
      "Ġborn": 3053,
      "anda": 3054,
      "Ġimmigrants": 3055,
      "bon": 3056,
      "ĠALL": 3057,
      "Ġwife": 3058,
      "utions": 3059,
      "ĠBig": 3060,
      "ems": 3061,
      "epend": 3062,
      "duced": 3063,
      "oor": 3064,
      "Ġvers": 3065,
      "Ġsqu": 3066,
      "Ġfell": 3067,
      "Ġanal": 3068,
      "ĠSup": 3069,
      "Ġupon": 3070,
      "Ġthank": 3071,
      "ĠHave": 3072,
      "Ġinflu": 3073,
      "Ġcoward": 3074,
      "Ġbott": 3075,
      "Ġplayers": 3076,
      "Ġtraffic": 3077,
      "Ġhypocrite": 3078,
      ".,": 3079,
      "Ġmurder": 3080,
      "rast": 3081,
      "ouver": 3082,
      "ĠFederal": 3083,
      "aul": 3084,
      "Ġcash": 3085,
      "aries": 3086,
      "Ġjournal": 3087,
      "uclear": 3088,
      "Ġsource": 3089,
      "Ġhours": 3090,
      "HA": 3091,
      "Ġdata": 3092,
      "Ġhot": 3093,
      "ĠAD": 3094,
      "ĠMin": 3095,
      "Ġresponsibility": 3096,
      "osp": 3097,
      "Ġdrugs": 3098,
      "ran": 3099,
      "Ġpeace": 3100,
      "Ġdro": 3101,
      "lich": 3102,
      "Ġmeaning": 3103,
      "Ġlisten": 3104,
      "UT": 3105,
      "onna": 3106,
      "ĠApp": 3107,
      "Ġ18": 3108,
      "ological": 3109,
      "ugene": 3110,
      "pped": 3111,
      "Ġchanges": 3112,
      "bb": 3113,
      "ping": 3114,
      "ancouver": 3115,
      "news": 3116,
      "uted": 3117,
      "ĠSte": 3118,
      "Ġlosers": 3119,
      "Ġcop": 3120,
      "Ġpath": 3121,
      "Ġsector": 3122,
      "Ġprofess": 3123,
      "Ġeasily": 3124,
      "Ġattempt": 3125,
      "Ġsnow": 3126,
      "Ġfield": 3127,
      "Ġprior": 3128,
      "BI": 3129,
      "row": 3130,
      "Ġten": 3131,
      "Ġtur": 3132,
      "Ġcases": 3133,
      "unk": 3134,
      "Ġknowledge": 3135,
      "Ġblood": 3136,
      "We": 3137,
      "pet": 3138,
      "Ġcro": 3139,
      "Ġpict": 3140,
      "Ġarrog": 3141,
      "aging": 3142,
      "Ġbelief": 3143,
      "Ġsurv": 3144,
      "Ġsn": 3145,
      "Ġcross": 3146,
      "ĠRem": 3147,
      "Ġdemon": 3148,
      "angu": 3149,
      "Ġculture": 3150,
      "Ġsuspect": 3151,
      "umn": 3152,
      "Ġremo": 3153,
      "Ġcarbon": 3154,
      "ĠActually": 3155,
      "ĠKeep": 3156,
      "Ġpassed": 3157,
      "Ġrequired": 3158,
      "ben": 3159,
      "ishing": 3160,
      "ĠBush": 3161,
      "Ġparties": 3162,
      "Ġpropag": 3163,
      "Ġinnoc": 3164,
      "OS": 3165,
      "ued": 3166,
      "Ġdivid": 3167,
      "irty": 3168,
      "Ġvar": 3169,
      "Ġsounds": 3170,
      "ĠIN": 3171,
      "enty": 3172,
      "room": 3173,
      "Ġproof": 3174,
      "Ġturned": 3175,
      "Ġseriously": 3176,
      "lig": 3177,
      "Ġpub": 3178,
      "Ġearn": 3179,
      "ĠCor": 3180,
      "ĠPl": 3181,
      "Ġquestions": 3182,
      "Ġreligious": 3183,
      "ĠSyri": 3184,
      "Ġnatural": 3185,
      "ILL": 3186,
      "ĠNews": 3187,
      "Ġobject": 3188,
      "Ġnet": 3189,
      "ĠSince": 3190,
      "que": 3191,
      "Ġtwe": 3192,
      "azing": 3193,
      "Ġcredit": 3194,
      "Ġenforce": 3195,
      "Ġblind": 3196,
      "ĠGe": 3197,
      "Ġfault": 3198,
      "Ġnone": 3199,
      "Ġgir": 3200,
      "men": 3201,
      "Ġpig": 3202,
      "Ġshouldn": 3203,
      "Ġprim": 3204,
      "Ġsaf": 3205,
      "ĠDemocrat": 3206,
      "ka": 3207,
      "ĠPh": 3208,
      "ĠNothing": 3209,
      "Ġrespond": 3210,
      "Ġplanet": 3211,
      "Ġinterests": 3212,
      "Ġdollar": 3213,
      "ĠSenate": 3214,
      "Ġlun": 3215,
      "unt": 3216,
      "elt": 3217,
      "itely": 3218,
      "Ġlots": 3219,
      "chen": 3220,
      "time": 3221,
      "Ġpet": 3222,
      "ĠHope": 3223,
      "Ġtrou": 3224,
      "Ġgrand": 3225,
      "Ġbusinesses": 3226,
      "Ġcritic": 3227,
      "TA": 3228,
      "cle": 3229,
      "Ġnear": 3230,
      "Ġwrote": 3231,
      "Ġdefense": 3232,
      "Ġdeserve": 3233,
      "Ġcorporate": 3234,
      "edi": 3235,
      "Ġstri": 3236,
      "ĠON": 3237,
      "Ġbrought": 3238,
      "ĠQue": 3239,
      "--------": 3240,
      "Ġavoid": 3241,
      "ĠMexico": 3242,
      "OW": 3243,
      "orter": 3244,
      "oti": 3245,
      "Ġanymore": 3246,
      "Ġreligion": 3247,
      "Ġpaper": 3248,
      "Ġdiv": 3249,
      "Ġharm": 3250,
      "Ġchalleng": 3251,
      "ĠVancouver": 3252,
      "ĠĠĠĠĠĠĠĠ": 3253,
      "inese": 3254,
      "Ġpopular": 3255,
      "ĠGerman": 3256,
      "?!": 3257,
      "ĠEugene": 3258,
      "Ġaffect": 3259,
      "yle": 3260,
      "orm": 3261,
      "Ġmother": 3262,
      "eth": 3263,
      "imp": 3264,
      "ilities": 3265,
      "Ġvide": 3266,
      "Ġbuff": 3267,
      "Ġzero": 3268,
      "ches": 3269,
      "inking": 3270,
      "erc": 3271,
      "Ġfired": 3272,
      "Ġseason": 3273,
      "Ġgovernments": 3274,
      "Ġprevious": 3275,
      "Ġscrew": 3276,
      "Ġhealthcare": 3277,
      "Ġdamage": 3278,
      "Ġraise": 3279,
      "Ġhomes": 3280,
      "RA": 3281,
      "Ġlink": 3282,
      "acter": 3283,
      "ĠMs": 3284,
      "endment": 3285,
      "FL": 3286,
      "ey": 3287,
      "idered": 3288,
      "Ġmeant": 3289,
      "rs": 3290,
      "Ġlangu": 3291,
      "vert": 3292,
      "ĠDep": 3293,
      "Ġjustice": 3294,
      "Ġ12": 3295,
      "Ġadult": 3296,
      "Ġ2016": 3297,
      "itude": 3298,
      "ĠInt": 3299,
      "ĠWar": 3300,
      "ĠReg": 3301,
      "lection": 3302,
      "Ġhurt": 3303,
      "12": 3304,
      "Trump": 3305,
      "view": 3306,
      "Ġ*": 3307,
      "Ġabuse": 3308,
      "Ġscum": 3309,
      "levant": 3310,
      "Ġneighbor": 3311,
      "ĠAlberta": 3312,
      "gle": 3313,
      "Ġped": 3314,
      "ĠNational": 3315,
      "ript": 3316,
      "raph": 3317,
      "what": 3318,
      "Ġvalues": 3319,
      "Ġestab": 3320,
      "Ġbag": 3321,
      "arily": 3322,
      "Ġheld": 3323,
      "Ġfraud": 3324,
      "Ġtemp": 3325,
      "Ġputting": 3326,
      "Ġwatching": 3327,
      "ĠMuslims": 3328,
      "Ġstreet": 3329,
      "atter": 3330,
      "ĠTime": 3331,
      "ley": 3332,
      "Ġplaces": 3333,
      "ker": 3334,
      "Ġwest": 3335,
      "alled": 3336,
      "acks": 3337,
      "Ġthrow": 3338,
      "ĠCour": 3339,
      "ĠNE": 3340,
      "osing": 3341,
      "Ġaltern": 3342,
      "Ġconsidered": 3343,
      "itional": 3344,
      "anced": 3345,
      "Ġdemocracy": 3346,
      "light": 3347,
      "lling": 3348,
      "aming": 3349,
      "Ġperform": 3350,
      "Ġlaugh": 3351,
      "Ġeat": 3352,
      "Ġwelf": 3353,
      "Ġpurch": 3354,
      "Ġsafety": 3355,
      "Ġexpensive": 3356,
      "Ġborder": 3357,
      "Ġwelfare": 3358,
      "ĠCo": 3359,
      "Ġqual": 3360,
      "ION": 3361,
      "uel": 3362,
      "zz": 3363,
      "Ġwild": 3364,
      "Ġoffer": 3365,
      "Ġconcerned": 3366,
      "Ġgonna": 3367,
      "Ġprevent": 3368,
      "Ġresults": 3369,
      "ored": 3370,
      "Ġart": 3371,
      "Ġrecent": 3372,
      "Ġscient": 3373,
      "Ġdebate": 3374,
      "Ġcities": 3375,
      "Ġthird": 3376,
      "Ġnarc": 3377,
      "ada": 3378,
      "Ġsup": 3379,
      "Ġshit": 3380,
      "abb": 3381,
      "iven": 3382,
      "Ġclaims": 3383,
      "30": 3384,
      "Ġahead": 3385,
      "ĠBern": 3386,
      "Ġability": 3387,
      "ension": 3388,
      "rant": 3389,
      "ĠId": 3390,
      "Ġconstitution": 3391,
      "Ġfeed": 3392,
      "Ġincompetent": 3393,
      "Ġson": 3394,
      "ached": 3395,
      "ĠSie": 3396,
      "Ġuns": 3397,
      "oly": 3398,
      "ÃŁ": 3399,
      "ĠWould": 3400,
      "though": 3401,
      "OM": 3402,
      "Ġphot": 3403,
      "Ġgrowth": 3404,
      "Ġnut": 3405,
      "Ġnuclear": 3406,
      "ĠHer": 3407,
      "Ġasking": 3408,
      "Ġprove": 3409,
      "Ġ25": 3410,
      "Ġfollowing": 3411,
      "Ġprograms": 3412,
      "attle": 3413,
      "AY": 3414,
      "ado": 3415,
      "Ġhero": 3416,
      "Ġdocu": 3417,
      "rael": 3418,
      "Ġotherwise": 3419,
      "dy": 3420,
      "Ġhop": 3421,
      "Ġgod": 3422,
      "ĠRes": 3423,
      "Ġthanks": 3424,
      "Ġexpress": 3425,
      "ĠRussians": 3426,
      "lines": 3427,
      "Ġtour": 3428,
      "Ġdecisions": 3429,
      "Ġmoving": 3430,
      "Ġnecessary": 3431,
      "sych": 3432,
      "Ġstraight": 3433,
      "Ġbeat": 3434,
      "Ġvol": 3435,
      "Ġdont": 3436,
      "icted": 3437,
      "Ġracism": 3438,
      "ĠFrom": 3439,
      "Ġwaiting": 3440,
      "ĠDenver": 3441,
      "Ġsite": 3442,
      "Ġmeth": 3443,
      "oard": 3444,
      "Ġforced": 3445,
      "Ġcomb": 3446,
      "Ġsupporting": 3447,
      "Ġexpl": 3448,
      "Ġglad": 3449,
      "tain": 3450,
      "Ġcops": 3451,
      "ube": 3452,
      "ĠAss": 3453,
      "Ġmorons": 3454,
      "15": 3455,
      "Ġkick": 3456,
      "bert": 3457,
      "Ġcolumn": 3458,
      "Ġpurpose": 3459,
      "do": 3460,
      "ouch": 3461,
      "ĠChinese": 3462,
      "Ġintelligence": 3463,
      "ste": 3464,
      "ĠTheir": 3465,
      "ival": 3466,
      "Ġassault": 3467,
      "ocked": 3468,
      "Ġdiscussion": 3469,
      "Ġimprove": 3470,
      "Ġtarget": 3471,
      "ners": 3472,
      "train": 3473,
      "Ġworry": 3474,
      "umer": 3475,
      "Ġmyself": 3476,
      "OTUS": 3477,
      "Ġmovie": 3478,
      "fin": 3479,
      "iny": 3480,
      "Ġsubst": 3481,
      "Ġnegoti": 3482,
      "rely": 3483,
      "ompl": 3484,
      "Ġvon": 3485,
      "iously": 3486,
      "Ġeffort": 3487,
      "ĠSouth": 3488,
      "olution": 3489,
      "ustom": 3490,
      "Ġconsequ": 3491,
      "Ġrule": 3492,
      "Ġbuying": 3493,
      "Ġphys": 3494,
      "Ġfailure": 3495,
      "Ġcares": 3496,
      "Ġterrorist": 3497,
      "!\"": 3498,
      "sp": 3499,
      "Ġaccording": 3500,
      "Ġgames": 3501,
      "Ġdeli": 3502,
      "Ġmag": 3503,
      "Ġplain": 3504,
      "Ġdevelopment": 3505,
      "Ġpropaganda": 3506,
      "Ġnarciss": 3507,
      "lished": 3508,
      "ĠOK": 3509,
      "Ġreplace": 3510,
      "ĠInst": 3511,
      "Ġbought": 3512,
      "Ġfan": 3513,
      "Ġfather": 3514,
      "ĠPFD": 3515,
      "ift": 3516,
      "Ġcharacter": 3517,
      "rastructure": 3518,
      "mon": 3519,
      "Ġ/": 3520,
      "Ġsle": 3521,
      "iced": 3522,
      "ĠEl": 3523,
      "Ġterms": 3524,
      "Ġimmedi": 3525,
      "ohol": 3526,
      "Ġindeed": 3527,
      "LY": 3528,
      "rel": 3529,
      "Ġdict": 3530,
      "Ġinit": 3531,
      "aced": 3532,
      "Ġum": 3533,
      "urs": 3534,
      "Ġwhose": 3535,
      "Ġdisapp": 3536,
      "Ġsaving": 3537,
      "Ġplayed": 3538,
      "Ġinvestment": 3539,
      "Ġcuts": 3540,
      "Ġ90": 3541,
      "Ġmeeting": 3542,
      "ination": 3543,
      "ĠTR": 3544,
      "ĠCr": 3545,
      "Ġconservatives": 3546,
      "Ġsurprised": 3547,
      "ĠComey": 3548,
      "Ġur": 3549,
      "igen": 3550,
      "ĠStop": 3551,
      "Ġapolog": 3552,
      "VE": 3553,
      "was": 3554,
      "Ġdecl": 3555,
      "ma": 3556,
      "Ġhar": 3557,
      "Ġgives": 3558,
      "Ġconnect": 3559,
      "ode": 3560,
      "Ġapply": 3561,
      "ĠAnyone": 3562,
      "Ġadmit": 3563,
      "Ġopportunity": 3564,
      "ape": 3565,
      "orld": 3566,
      "Ġlic": 3567,
      "idency": 3568,
      "Ġwel": 3569,
      "ĠYet": 3570,
      "Ġappropri": 3571,
      "ĠEnglish": 3572,
      "incip": 3573,
      "Ġuseless": 3574,
      "ĠSure": 3575,
      "Ġconvers": 3576,
      "Ġspace": 3577,
      "Ġcrimes": 3578,
      "Ġremind": 3579,
      "Ġcaused": 3580,
      "Ġlanguage": 3581,
      "Ġnobody": 3582,
      "cohol": 3583,
      "owd": 3584,
      "Ġusually": 3585,
      "Ġbelong": 3586,
      "Ġstarting": 3587,
      "tr": 3588,
      "Ġfit": 3589,
      "Ġowner": 3590,
      "ĠUnf": 3591,
      "aves": 3592,
      "Ġjerk": 3593,
      "ĠUN": 3594,
      "Ġentit": 3595,
      "Ġappears": 3596,
      "Ġfocus": 3597,
      "nk": 3598,
      "Ġfast": 3599,
      "ĠTV": 3600,
      "ĠFBI": 3601,
      "Ġappoint": 3602,
      "2017": 3603,
      "Ġimagine": 3604,
      "Ġvo": 3605,
      "ĠWhich": 3606,
      "Ġmoral": 3607,
      "Ġcriminals": 3608,
      "Ġmental": 3609,
      "ceed": 3610,
      "Ġdoor": 3611,
      "ĠBS": 3612,
      "ĠNFL": 3613,
      "ocial": 3614,
      "Ġquality": 3615,
      "Ġcheap": 3616,
      "Ġtraitor": 3617,
      "Ġincreasing": 3618,
      "Ġstudy": 3619,
      "Ġteachers": 3620,
      "Ġinnocent": 3621,
      "IG": 3622,
      "gen": 3623,
      "ĠMS": 3624,
      "Ġhasn": 3625,
      "Ġreduce": 3626,
      "cellent": 3627,
      "Ġaud": 3628,
      "Ġlol": 3629,
      "ĠGen": 3630,
      "Ġaccompl": 3631,
      "Ġfoolish": 3632,
      "Ġinclude": 3633,
      "Ġexcuse": 3634,
      "Ġmember": 3635,
      "rom": 3636,
      "het": 3637,
      "atory": 3638,
      "ĠBet": 3639,
      "Ġproven": 3640,
      "Ġbasic": 3641,
      "Ġmassive": 3642,
      "Ġresidents": 3643,
      "Th": 3644,
      "Ġaf": 3645,
      "ened": 3646,
      "Ġpsych": 3647,
      "Ġbear": 3648,
      "irm": 3649,
      "Ġunion": 3650,
      "Ġperm": 3651,
      "Ġdecided": 3652,
      "Ġideas": 3653,
      "Ġstatus": 3654,
      "Ġreview": 3655,
      "itter": 3656,
      "Ġlif": 3657,
      "Ġpret": 3658,
      "Ġopinions": 3659,
      "ĠADN": 3660,
      "Ġauf": 3661,
      "Ġbody": 3662,
      "nn": 3663,
      "inks": 3664,
      "ĠPost": 3665,
      "Ġassume": 3666,
      "azis": 3667,
      "Ġhappening": 3668,
      "Ġlegislature": 3669,
      "hel": 3670,
      "alking": 3671,
      "Ġstock": 3672,
      "olf": 3673,
      "ulation": 3674,
      "rap": 3675,
      "while": 3676,
      "Ġcurrently": 3677,
      "hest": 3678,
      "isan": 3679,
      "Ġstick": 3680,
      "ĠMor": 3681,
      "ĠDemocratic": 3682,
      "Ġbra": 3683,
      "lled": 3684,
      "Ġforgot": 3685,
      "Ġran": 3686,
      "ĠPol": 3687,
      "iforn": 3688,
      "Ġbecame": 3689,
      "Ġ60": 3690,
      "Ġutter": 3691,
      "Ġsides": 3692,
      "ĠTax": 3693,
      "ĠSpe": 3694,
      "ĠPR": 3695,
      "Ġrelations": 3696,
      "Ġcontinues": 3697,
      "Ġweeks": 3698,
      "Ġmessage": 3699,
      "Ġsil": 3700,
      "ĠTry": 3701,
      "ĠLI": 3702,
      "Ġnegative": 3703,
      "Ġindividuals": 3704,
      "Ġtaxpayer": 3705,
      "ĠMedic": 3706,
      "ĠCourt": 3707,
      "ĠInstead": 3708,
      "know": 3709,
      "Ġess": 3710,
      "Ġbir": 3711,
      "Ġfive": 3712,
      "acare": 3713,
      ".......": 3714,
      "Ġincreased": 3715,
      "anes": 3716,
      "Ġstated": 3717,
      "Ġren": 3718,
      "ilty": 3719,
      "Ġprem": 3720,
      "Ġwriting": 3721,
      "AG": 3722,
      "Ġgay": 3723,
      "ĠAir": 3724,
      "Ġapparently": 3725,
      "Ġdecide": 3726,
      "Ġunderstanding": 3727,
      "Ġreasonable": 3728,
      "Ġviews": 3729,
      "Ġwage": 3730,
      "Ġpus": 3731,
      "Ġdies": 3732,
      "leg": 3733,
      "Ġstories": 3734,
      "ctors": 3735,
      "pping": 3736,
      "ĠOnce": 3737,
      "Ġselling": 3738,
      "Ġaware": 3739,
      "ĠAfric": 3740,
      "</": 3741,
      "vest": 3742,
      "Ġtired": 3743,
      "Ġproud": 3744,
      "Ġgrad": 3745,
      "Ġprovin": 3746,
      "Ġgrowing": 3747,
      "IL": 3748,
      "Ġcal": 3749,
      "Ġcaught": 3750,
      "Ġdrop": 3751,
      "Ġine": 3752,
      "acist": 3753,
      "ĠBoth": 3754,
      "ĠLeg": 3755,
      "that": 3756,
      "Ġdisp": 3757,
      "Ġsometimes": 3758,
      "Ġbuffoon": 3759,
      "ĠHA": 3760,
      "Ġelections": 3761,
      "Ġinfrastructure": 3762,
      "Ġmentally": 3763,
      "Ġbaby": 3764,
      "uana": 3765,
      "oul": 3766,
      "amacare": 3767,
      "Ġunc": 3768,
      "Ġeducated": 3769,
      "Ġcitizen": 3770,
      "Ġweapons": 3771,
      "Wh": 3772,
      "Ġgreen": 3773,
      "ĠRo": 3774,
      "Ġarticles": 3775,
      "they": 3776,
      "Ġstandard": 3777,
      "Ġregarding": 3778,
      "Ġang": 3779,
      "Ġord": 3780,
      "Ġarrest": 3781,
      "Ġload": 3782,
      "Ġpolitician": 3783,
      "Ġlogic": 3784,
      "Ġtowards": 3785,
      "ĠSee": 3786,
      "chie": 3787,
      "Ġlived": 3788,
      "Ġnearly": 3789,
      "ĠIsrael": 3790,
      "which": 3791,
      "ĠAgain": 3792,
      "reci": 3793,
      "orado": 3794,
      "ĠOF": 3795,
      "Ġelimin": 3796,
      "Ġterrorists": 3797,
      "Ġmanagement": 3798,
      "Ġbottom": 3799,
      "htm": 3800,
      "Ġminimum": 3801,
      "azy": 3802,
      "ĠBrit": 3803,
      "alker": 3804,
      "Ġmoment": 3805,
      "ijuana": 3806,
      "Ġvideo": 3807,
      "dd": 3808,
      "ĠUnd": 3809,
      "Ġelectric": 3810,
      "Ġkeeping": 3811,
      "Ġsentence": 3812,
      "isy": 3813,
      "Ġcy": 3814,
      "Ġug": 3815,
      "Ġgov": 3816,
      "ĠPaul": 3817,
      "Ġseeing": 3818,
      "60": 3819,
      "SA": 3820,
      "Ġded": 3821,
      "Ġnarr": 3822,
      "ĠTe": 3823,
      "Ġisland": 3824,
      "ĠAnt": 3825,
      "Ġship": 3826,
      "rage": 3827,
      "Ġcrowd": 3828,
      "ĠVery": 3829,
      "encies": 3830,
      "Ġencour": 3831,
      "ifornia": 3832,
      "inform": 3833,
      "ĠOther": 3834,
      "ept": 3835,
      "Ġenem": 3836,
      "Ġlearned": 3837,
      "ĠUnfortunately": 3838,
      "OO": 3839,
      "han": 3840,
      "Ġmir": 3841,
      "icking": 3842,
      "ĠIT": 3843,
      "Ġens": 3844,
      "avy": 3845,
      "ification": 3846,
      "Ġreporting": 3847,
      "Ġdemonstr": 3848,
      "ĠSer": 3849,
      "asty": 3850,
      "Ġindic": 3851,
      "Ġpossibly": 3852,
      "Ġregardless": 3853,
      "Ġcustom": 3854,
      "Ġmort": 3855,
      "Ġhang": 3856,
      "Ġlob": 3857,
      "Ġliter": 3858,
      "iving": 3859,
      "Ġshowing": 3860,
      "Ġserve": 3861,
      "Ġstanding": 3862,
      "Ġpositive": 3863,
      "Ġlevels": 3864,
      "Ġmistake": 3865,
      "Ġinfluence": 3866,
      "Ġsat": 3867,
      "itors": 3868,
      "Ġdied": 3869,
      "ĠTake": 3870,
      "Ġprincip": 3871,
      "Ġaccur": 3872,
      "Ġslow": 3873,
      "Ġproduction": 3874,
      "Ġfish": 3875,
      "Ġanywhere": 3876,
      "Ġdogs": 3877,
      "Ġanimals": 3878,
      "Ġdeficit": 3879,
      "bit": 3880,
      "eder": 3881,
      "alty": 3882,
      "Ġindepend": 3883,
      "Ġmultip": 3884,
      "Ġoriginal": 3885,
      "Ġcat": 3886,
      "Ġple": 3887,
      "usion": 3888,
      "duct": 3889,
      "Ġheads": 3890,
      "ĠBlack": 3891,
      "pir": 3892,
      "Ġjump": 3893,
      "Ġsepar": 3894,
      "unny": 3895,
      "Ġalcohol": 3896,
      "Ġestate": 3897,
      "Ġinternational": 3898,
      "book": 3899,
      "ĠSm": 3900,
      "Ġshop": 3901,
      "ĠKing": 3902,
      "Ġamazing": 3903,
      "Ġmostly": 3904,
      "ground": 3905,
      "Ġstopped": 3906,
      "Ġphone": 3907,
      "Ġlosing": 3908,
      "Ġimpe": 3909,
      "Ġmayor": 3910,
      "enced": 3911,
      "Ġadvoc": 3912,
      "Ġemot": 3913,
      "Ġparticular": 3914,
      "cer": 3915,
      "hib": 3916,
      "ien": 3917,
      "ĠSand": 3918,
      "ĠCom": 3919,
      "Ġguilty": 3920,
      "Ġprep": 3921,
      "Ġbigger": 3922,
      "Ġextra": 3923,
      "Ġeyes": 3924,
      "Ġsignificant": 3925,
      "Ġcard": 3926,
      "arant": 3927,
      "ester": 3928,
      "elly": 3929,
      "Ġapproach": 3930,
      "Ġdefinitely": 3931,
      "Ġtypical": 3932,
      "Ġtrouble": 3933,
      "KE": 3934,
      "aith": 3935,
      "Ġ=": 3936,
      "ille": 3937,
      "ĠJe": 3938,
      "Ġspo": 3939,
      "rum": 3940,
      "Ġspeaking": 3941,
      "Ġready": 3942,
      "Ġletter": 3943,
      "Ġracists": 3944,
      "Ġhighly": 3945,
      "Ġminutes": 3946,
      "Ġdistrict": 3947,
      "had": 3948,
      "Ġsix": 3949,
      "ĠCO": 3950,
      "Ġja": 3951,
      "ĠPolit": 3952,
      "ĠDav": 3953,
      "oses": 3954,
      "Ġcompared": 3955,
      "Ġpersonally": 3956,
      "Ġassoci": 3957,
      "Ġreported": 3958,
      "Ġdaily": 3959,
      "la": 3960,
      "Ġsomehow": 3961,
      "Ġspin": 3962,
      "Ġlimit": 3963,
      "Ġbankrupt": 3964,
      "ĠQuebec": 3965,
      "%.": 3966,
      "back": 3967,
      "ownt": 3968,
      "utive": 3969,
      "ĠNever": 3970,
      "Ġkey": 3971,
      "Ġposting": 3972,
      "ban": 3973,
      "ĠComp": 3974,
      "ĠLaw": 3975,
      "Ġplans": 3976,
      "Ġknowing": 3977,
      "aker": 3978,
      "Ġtrail": 3979,
      "Ġsett": 3980,
      "Ġskin": 3981,
      "ï¿½ï¿½ï¿½": 3982,
      "fort": 3983,
      "Ġtick": 3984,
      "Ġsich": 3985,
      "ĠJoe": 3986,
      "Ġsupply": 3987,
      "Ġattacks": 3988,
      "uit": 3989,
      "ĠfÃ¼r": 3990,
      "eter": 3991,
      "Ġclue": 3992,
      "Ġsymp": 3993,
      "Ġterrible": 3994,
      "ERS": 3995,
      "Ġstrate": 3996,
      "Ġofficials": 3997,
      "Ġvictims": 3998,
      "80": 3999,
      "AA": 4000,
      "Ġburn": 4001,
      "Ġmand": 4002,
      "Ġsteal": 4003,
      "Ġprosec": 4004,
      "tee": 4005,
      "Ġprovided": 4006,
      "Ġcorporations": 4007,
      "eed": 4008,
      "Ġich": 4009,
      "Ġnames": 4010,
      "Ġdrivers": 4011,
      "Ġsources": 4012,
      "ov": 4013,
      "zen": 4014,
      "Ġasse": 4015,
      "Ġcoal": 4016,
      "Ġcoverage": 4017,
      "Ġinterested": 4018,
      "Ġcharges": 4019,
      "Ġdouble": 4020,
      "ophob": 4021,
      "Ġshooting": 4022,
      "lin": 4023,
      "Ġauch": 4024,
      "real": 4025,
      "Ġparticip": 4026,
      "erves": 4027,
      "Ġcab": 4028,
      "Ġdi": 4029,
      "idel": 4030,
      "Ġwhom": 4031,
      "ĠFox": 4032,
      "ucks": 4033,
      "Ġappreci": 4034,
      "Ġcareer": 4035,
      "Ġequal": 4036,
      "Ġcorruption": 4037,
      "2016": 4038,
      "Ġrefugees": 4039,
      "Ġmus": 4040,
      "arian": 4041,
      "amer": 4042,
      "ĠPre": 4043,
      "ĠOk": 4044,
      "ously": 4045,
      "Ġunlike": 4046,
      "Ġinstit": 4047,
      "Ġmissed": 4048,
      "ENT": 4049,
      "Ġweren": 4050,
      "Ġsuprem": 4051,
      "NN": 4052,
      "gue": 4053,
      "yout": 4054,
      "ĠSounds": 4055,
      "Ġsupported": 4056,
      "Ġposted": 4057,
      "Ġsens": 4058,
      "Ġalleg": 4059,
      "ager": 4060,
      "Ġdisaster": 4061,
      "Ġnewsp": 4062,
      "Ġ2017": 4063,
      "Ġengine": 4064,
      "ĠEveryone": 4065,
      "cing": 4066,
      "Ġdump": 4067,
      "Ġrele": 4068,
      "oles": 4069,
      "Ġdelus": 4070,
      "ribe": 4071,
      "Ġlooked": 4072,
      "Ġachie": 4073,
      "oric": 4074,
      "Ġpure": 4075,
      "Ġdirty": 4076,
      "Ġlay": 4077,
      "Ġvast": 4078,
      "Ġquit": 4079,
      "Ġspeed": 4080,
      "Ġfuel": 4081,
      "ĠColorado": 4082,
      "ĠCalifornia": 4083,
      "Ġpicture": 4084,
      "Ġarrogant": 4085,
      "down": 4086,
      "wood": 4087,
      "Ġsan": 4088,
      "Ġpock": 4089,
      "Ġpush": 4090,
      "Ġrational": 4091,
      "iles": 4092,
      "Ġremain": 4093,
      "ufact": 4094,
      "ĠACA": 4095,
      "70": 4096,
      "iers": 4097,
      "rimin": 4098,
      "Ġdut": 4099,
      "ady": 4100,
      "Ġult": 4101,
      "ĠWalker": 4102,
      "ĠPal": 4103,
      "Ġleaving": 4104,
      "Ġplus": 4105,
      "Ġtrad": 4106,
      "Ġmodern": 4107,
      "Ġnormal": 4108,
      "Ġtreatment": 4109,
      "Ġdegree": 4110,
      "Ġugly": 4111,
      "ĠBE": 4112,
      "ĠNice": 4113,
      "Ġanybody": 4114,
      "Ġsheep": 4115,
      "Ġkept": 4116,
      "Ġpotential": 4117,
      "Ġdirectly": 4118,
      "Ġfootball": 4119,
      "Ġquickly": 4120,
      "Ġretirement": 4121,
      "Ġconsequences": 4122,
      "Ġbirth": 4123,
      "IA": 4124,
      "Ġbor": 4125,
      "Ġmine": 4126,
      "ander": 4127,
      "Ġvoter": 4128,
      "Ġassist": 4129,
      "ĠGovern": 4130,
      "Ġbox": 4131,
      "Ġviolent": 4132,
      "Ġhundreds": 4133,
      "html": 4134,
      "band": 4135,
      "isis": 4136,
      "Ġbs": 4137,
      "ĠGary": 4138,
      "Ġbasis": 4139,
      "ĠConservative": 4140,
      "21": 4141,
      "TH": 4142,
      "uct": 4143,
      "Ġ..": 4144,
      "icks": 4145,
      "Ġgreed": 4146,
      "ĠHa": 4147,
      "Ġneither": 4148,
      "Ġplant": 4149,
      "Ġkeeps": 4150,
      "Ġdemocrats": 4151,
      "Ġpractice": 4152,
      "IM": 4153,
      "erest": 4154,
      "Ġmach": 4155,
      "Ġhun": 4156,
      "Ġreve": 4157,
      "ĠHE": 4158,
      "raid": 4159,
      "ressed": 4160,
      "employ": 4161,
      "Ġautom": 4162,
      "ĠCounty": 4163,
      "Ġfem": 4164,
      "ĠPort": 4165,
      "Ġconcept": 4166,
      "Ġeditor": 4167,
      "Ġbillions": 4168,
      "ĠPOTUS": 4169,
      "Ġpray": 4170,
      "Ġfully": 4171,
      "ĠIdiot": 4172,
      "life": 4173,
      "Ġtough": 4174,
      "orge": 4175,
      "ĠSomet": 4176,
      "Ġblow": 4177,
      "---": 4178,
      "Ġlegislators": 4179,
      "Ġcandidates": 4180,
      "ĠConservatives": 4181,
      "ding": 4182,
      "year": 4183,
      "Ġdream": 4184,
      "entially": 4185,
      "iful": 4186,
      "Ġsomewhere": 4187,
      "ĠJune": 4188,
      "Ġtrain": 4189,
      "cont": 4190,
      "Ġprotection": 4191,
      "oking": 4192,
      "amm": 4193,
      "ĠNob": 4194,
      "Ġvs": 4195,
      "Ġspread": 4196,
      "rat": 4197,
      "watch": 4198,
      "Ġhide": 4199,
      "iled": 4200,
      "oser": 4201,
      "ĠJap": 4202,
      "ague": 4203,
      "Ġcompar": 4204,
      "Ġskills": 4205,
      "Ġlimited": 4206,
      "ĠRemember": 4207,
      "ray": 4208,
      "erry": 4209,
      "Ġbomb": 4210,
      "idering": 4211,
      "Ġgoal": 4212,
      "Ġyours": 4213,
      "Ġstatements": 4214,
      "Ġmurde": 4215,
      "Ġopposition": 4216,
      "ĠPathetic": 4217,
      "Ġmultiple": 4218,
      "40": 4219,
      "mmer": 4220,
      "Ġdownt": 4221,
      "Ġled": 4222,
      "Ġinj": 4223,
      "airs": 4224,
      "Ġprovince": 4225,
      "Ġmorning": 4226,
      "Ġhumans": 4227,
      "Ġdefinition": 4228,
      "Ġstreets": 4229,
      "Ġfellow": 4230,
      "TW": 4231,
      "rees": 4232,
      "Ġbreat": 4233,
      "Ġfans": 4234,
      "opath": 4235,
      "ĠObamacare": 4236,
      "Ġopposed": 4237,
      "iki": 4238,
      "Ġeffective": 4239,
      "hon": 4240,
      "Ġtend": 4241,
      "ĠHon": 4242,
      "essions": 4243,
      "ular": 4244,
      "Ġacting": 4245,
      "umbag": 4246,
      "ĠAlaskan": 4247,
      "Ġsurprise": 4248,
      "vin": 4249,
      "Ġnur": 4250,
      "illing": 4251,
      "Ġrole": 4252,
      "Ġrecently": 4253,
      "play": 4254,
      "Ġreceived": 4255,
      "Ġdespite": 4256,
      "AF": 4257,
      "Al": 4258,
      "ients": 4259,
      "Ġhost": 4260,
      "ynne": 4261,
      "Ġmentioned": 4262,
      "Ġremoved": 4263,
      "UR": 4264,
      "sc": 4265,
      "Ġwit": 4266,
      "ĠSw": 4267,
      "uster": 4268,
      "Ġbutt": 4269,
      "âĢ¦": 4270,
      "Ġintegr": 4271,
      "Ġsecret": 4272,
      "Ġexpected": 4273,
      "Ġwealthy": 4274,
      ",âĢĿ": 4275,
      "Ġsind": 4276,
      "antage": 4277,
      "raq": 4278,
      "ression": 4279,
      "Ġmedic": 4280,
      "Ġevents": 4281,
      "lied": 4282,
      "Ġhypocrisy": 4283,
      "Ġroads": 4284,
      "Ġbroad": 4285,
      "Ġhorrible": 4286,
      "Ġtechnology": 4287,
      "Ġdad": 4288,
      "Ġlau": 4289,
      "imb": 4290,
      "estic": 4291,
      "ference": 4292,
      "Ġcalls": 4293,
      "Ġrestrict": 4294,
      "Ġstudent": 4295,
      "Ġ80": 4296,
      "Ġbias": 4297,
      "kin": 4298,
      "rer": 4299,
      "Ġhack": 4300,
      "educ": 4301,
      "Ġnature": 4302,
      "Ġshown": 4303,
      "Ġrape": 4304,
      "Ġsie": 4305,
      "Ġreject": 4306,
      "Ġonline": 4307,
      "ĠRich": 4308,
      "Ġmanufact": 4309,
      "Ġ16": 4310,
      "Ġaccident": 4311,
      "Ġrecall": 4312,
      "Ġheadline": 4313,
      "Ġlegislation": 4314,
      "Ġcomput": 4315,
      "Ġcontr": 4316,
      "ĠGovernor": 4317,
      "lies": 4318,
      "Ġfle": 4319,
      "Ġcongress": 4320,
      "Ġwarming": 4321,
      "Ġreceive": 4322,
      "====": 4323,
      "ĠTwo": 4324,
      "Ġneighborhood": 4325,
      "Ġice": 4326,
      "state": 4327,
      "ĠAb": 4328,
      "ĠCap": 4329,
      "Ġround": 4330,
      "Ġalt": 4331,
      "oogle": 4332,
      "Ġeverybody": 4333,
      "Ġpays": 4334,
      "Ġirre": 4335,
      "Ġenforcement": 4336,
      "ĠGermany": 4337,
      "Ġhosp": 4338,
      "ĠIraq": 4339,
      "Ġreform": 4340,
      "ĠAG": 4341,
      "ĠCent": 4342,
      "resp": 4343,
      "enses": 4344,
      "Ġquot": 4345,
      "Ġconsist": 4346,
      "Ġfees": 4347,
      "Ġdriver": 4348,
      "Ġcommunities": 4349,
      "Ġholding": 4350,
      "Ġ70": 4351,
      "oked": 4352,
      "Ġsuccessful": 4353,
      "ĠSyria": 4354,
      "Ġafraid": 4355,
      "Ġfing": 4356,
      "Ġfisc": 4357,
      "Ġmad": 4358,
      "Ġlazy": 4359,
      "Ġrise": 4360,
      "ĠYork": 4361,
      "Ġplenty": 4362,
      "Ġsomebody": 4363,
      "Ġcommitted": 4364,
      "Ġrecomm": 4365,
      "ĠâĢĶ": 4366,
      "ĠSenator": 4367,
      "Ġspecific": 4368,
      "Ġcele": 4369,
      "Ġnations": 4370,
      "asy": 4371,
      "Ġdel": 4372,
      "ĠDie": 4373,
      "Ġ11": 4374,
      "Ġdism": 4375,
      "Ġmoved": 4376,
      "Ġprojects": 4377,
      "UP": 4378,
      "Ġbother": 4379,
      "Ġfaith": 4380,
      "Ġgra": 4381,
      "kel": 4382,
      "ocks": 4383,
      "awa": 4384,
      "Ġowned": 4385,
      "Ġteach": 4386,
      "Ġhelping": 4387,
      "Ġmarijuana": 4388,
      "Ġconditions": 4389,
      "Ġpredict": 4390,
      "auterb": 4391,
      "ĠBernie": 4392,
      "19": 4393,
      "iant": 4394,
      "Ġdig": 4395,
      "Ġlikes": 4396,
      "Ġguarant": 4397,
      "Ġhelped": 4398,
      "Ġbasically": 4399,
      "Ġoption": 4400,
      "Ġpark": 4401,
      "Ġagreement": 4402,
      "Ġproduce": 4403,
      "Ġeye": 4404,
      "Ġrepublican": 4405,
      "Ġdocument": 4406,
      "100": 4407,
      "AM": 4408,
      "aur": 4409,
      "Ġpage": 4410,
      "Ġthus": 4411,
      "Ġnotice": 4412,
      "Ġsun": 4413,
      "Ġbrother": 4414,
      "Ġscumbag": 4415,
      "................": 4416,
      "Ġtopic": 4417,
      "Ġintelligent": 4418,
      "Ġeventually": 4419,
      "Ġbeginning": 4420,
      "Ġalternative": 4421,
      "Ġsitting": 4422,
      "Ġbeaut": 4423,
      "ĠCivil": 4424,
      "ureau": 4425,
      "Ġchanging": 4426,
      "Ġdesper": 4427,
      "Ã¤Ã¤": 4428,
      "Ġconflic": 4429,
      "ĠLeft": 4430,
      "Ġimmediately": 4431,
      "elect": 4432,
      "ha": 4433,
      "with": 4434,
      "inn": 4435,
      "orney": 4436,
      "Ġhus": 4437,
      "Ġep": 4438,
      "Ġhey": 4439,
      "Ġvirt": 4440,
      "Ġbelow": 4441,
      "Ġbelieves": 4442,
      "lier": 4443,
      "ĠTHAT": 4444,
      "Ġbills": 4445,
      "ĠX": 4446,
      "Ġmer": 4447,
      "ĠIran": 4448,
      "ĠDN": 4449,
      "ocking": 4450,
      "grace": 4451,
      "Ġsystems": 4452,
      "Ġfascist": 4453,
      "Ġlunatic": 4454,
      "gn": 4455,
      "Ġtouch": 4456,
      "Ġstru": 4457,
      "Ġlied": 4458,
      "hern": 4459,
      "Ġtwice": 4460,
      "Ġokay": 4461,
      "Ġwide": 4462,
      "any": 4463,
      "Ġdu": 4464,
      "Ġstar": 4465,
      "oper": 4466,
      "Ġride": 4467,
      "ĠDE": 4468,
      "Ġvia": 4469,
      "Ġ24": 4470,
      "Ġtraining": 4471,
      "Ġorganization": 4472,
      "Ġprogressive": 4473,
      "auterbach": 4474,
      "$$": 4475,
      "RS": 4476,
      "pre": 4477,
      "Ġsouth": 4478,
      "Ġport": 4479,
      "Ġmid": 4480,
      "olic": 4481,
      "astic": 4482,
      "Ġprint": 4483,
      "Ġsuppose": 4484,
      "Ġmatters": 4485,
      "Ġrelated": 4486,
      "manent": 4487,
      "Ġ199": 4488,
      "Ġemployee": 4489,
      "Ġtrip": 4490,
      "Ġvarious": 4491,
      "You": 4492,
      "ioc": 4493,
      "law": 4494,
      "Ġwie": 4495,
      "Ġcool": 4496,
      "ams": 4497,
      "ustain": 4498,
      "...\"": 4499,
      "cience": 4500,
      "pective": 4501,
      "Ġchoices": 4502,
      "Ġofficial": 4503,
      "Ġhighest": 4504,
      "Ġwelcome": 4505,
      "orid": 4506,
      "ĠIm": 4507,
      "vey": 4508,
      "ĠGive": 4509,
      "Ġ17": 4510,
      "Ġlets": 4511,
      "Ġhandle": 4512,
      "Ġstandards": 4513,
      "ĠSeems": 4514,
      "Ġrepublicans": 4515,
      "ĠMinister": 4516,
      "Ġtweet": 4517,
      "PD": 4518,
      "part": 4519,
      "uk": 4520,
      "Ġfru": 4521,
      "Ġlat": 4522,
      "Ġya": 4523,
      "ĠMur": 4524,
      "Ġconstit": 4525,
      "ĠEast": 4526,
      "Ġshowed": 4527,
      "Ġincreases": 4528,
      "Ġconversation": 4529,
      "ris": 4530,
      "sch": 4531,
      "Ġwages": 4532,
      "Ġrelease": 4533,
      "Ġrout": 4534,
      "ĠEs": 4535,
      "Ġincred": 4536,
      "Ġreports": 4537,
      "Ġpropos": 4538,
      "Ġinternet": 4539,
      "25": 4540,
      "uous": 4541,
      "Ġsize": 4542,
      "Ġbed": 4543,
      "Ġpack": 4544,
      "ĠCar": 4545,
      "Ġattitude": 4546,
      "Ġadded": 4547,
      "Ġ2015": 4548,
      "Ġwinning": 4549,
      "Ġvalid": 4550,
      "Ġcentury": 4551,
      "Ġfighting": 4552,
      "Ġminority": 4553,
      "ĠImp": 4554,
      "amb": 4555,
      "text": 4556,
      "ĠKelly": 4557,
      "ysis": 4558,
      "Ġbroken": 4559,
      "Ġbecoming": 4560,
      "Ġangry": 4561,
      "ĠBTW": 4562,
      "ĠPe": 4563,
      "Ġsection": 4564,
      "Ġvill": 4565,
      "ables": 4566,
      "Ġchurch": 4567,
      "Ġ14": 4568,
      "Ġexpense": 4569,
      "Ġlegit": 4570,
      "Ġfarm": 4571,
      "Ġmater": 4572,
      "rench": 4573,
      "Ġofficers": 4574,
      "Ġdescrib": 4575,
      "ĠMcCain": 4576,
      "trump": 4577,
      "uild": 4578,
      "idge": 4579,
      "adem": 4580,
      "uting": 4581,
      "Ġnote": 4582,
      "Ġdoctor": 4583,
      "Ġpros": 4584,
      "Ġresign": 4585,
      "Ġattract": 4586,
      "Ġpromise": 4587,
      "Ġintellect": 4588,
      "Ġhatred": 4589,
      "Ġproducts": 4590,
      "It": 4591,
      "rd": 4592,
      "ĠCP": 4593,
      "ĠWorld": 4594,
      "ĠBL": 4595,
      "ĠKim": 4596,
      "Ġsports": 4597,
      "Ġrefuse": 4598,
      "Ġlargest": 4599,
      "Ġgeneration": 4600,
      "house": 4601,
      "Ġdom": 4602,
      "Ġproduc": 4603,
      "Ġoutrage": 4604,
      "Ġargue": 4605,
      "athy": 4606,
      "Ġgreater": 4607,
      "Ġadvice": 4608,
      "Ġdrunk": 4609,
      "Ġdraft": 4610,
      "Ġappropriate": 4611,
      "UC": 4612,
      "called": 4613,
      "ule": 4614,
      "inet": 4615,
      "Ġhire": 4616,
      "Ġhole": 4617,
      "Ġnasty": 4618,
      "ĠCoun": 4619,
      "ĠGO": 4620,
      "ancy": 4621,
      "ĠDems": 4622,
      "Ġprofits": 4623,
      "Ġprimary": 4624,
      "ĠHopefully": 4625,
      "Ġsleep": 4626,
      "Karl": 4627,
      "ky": 4628,
      "Ġreb": 4629,
      "ĠCNN": 4630,
      "ĠEd": 4631,
      "Ġparts": 4632,
      "Ġraised": 4633,
      "Ġcouncil": 4634,
      "Ġmortg": 4635,
      "Ġdowntown": 4636,
      "02": 4637,
      "cy": 4638,
      "win": 4639,
      "Ġna": 4640,
      "aches": 4641,
      "ĠHit": 4642,
      "ĠMa": 4643,
      "ifying": 4644,
      "iel": 4645,
      "Ġ21": 4646,
      "Ġspot": 4647,
      "Ġwriter": 4648,
      "ĠANY": 4649,
      "Ġmodel": 4650,
      "____": 4651,
      "Ġmeasure": 4652,
      "ĠSupreme": 4653,
      "youtube": 4654,
      "ALL": 4655,
      "cos": 4656,
      "uary": 4657,
      "ĠARE": 4658,
      "ĠSocial": 4659,
      "cht": 4660,
      "ĠBre": 4661,
      "ĠBar": 4662,
      "ĠNor": 4663,
      "apers": 4664,
      "Ġcrisis": 4665,
      "Ġsmoke": 4666,
      "ĠâĢ¦": 4667,
      "Ġreflect": 4668,
      "Ġpositions": 4669,
      "Ġtransport": 4670,
      "Ġhouses": 4671,
      "Ġpresidency": 4672,
      "Ġconstruction": 4673,
      "Ġbecomes": 4674,
      "Ġmethod": 4675,
      "Lauterbach": 4676,
      "Ġbooks": 4677,
      "Ġwebs": 4678,
      "ĠNY": 4679,
      "ulated": 4680,
      "Ġvehicle": 4681,
      "Ġ0": 4682,
      "Ġtool": 4683,
      "ĠCle": 4684,
      "ctions": 4685,
      "Ġrat": 4686,
      "ĠNazi": 4687,
      "Ġdisgrace": 4688,
      "Ġremove": 4689,
      "Ġentertain": 4690,
      "Ġcharged": 4691,
      "Ġgenerally": 4692,
      "Ġcounter": 4693,
      "iation": 4694,
      "aching": 4695,
      "ĠAcc": 4696,
      "ests": 4697,
      "ĠFin": 4698,
      "ĠChurch": 4699,
      "aked": 4700,
      "Ġrock": 4701,
      "ĠRead": 4702,
      "ipping": 4703,
      "35": 4704,
      "oes": 4705,
      "Ġserved": 4706,
      "Ġintent": 4707,
      "Ġswamp": 4708,
      "Ġpipeline": 4709,
      "ĠInterest": 4710,
      "ares": 4711,
      "cher": 4712,
      "uing": 4713,
      "Ġfant": 4714,
      "Ġdark": 4715,
      "ĠSO": 4716,
      "ĠJud": 4717,
      "ĠKind": 4718,
      "merican": 4719,
      "Ġsche": 4720,
      "Ġinsane": 4721,
      "Ġuseful": 4722,
      "Ġprivile": 4723,
      "ĠISIS": 4724,
      "',": 4725,
      "Ġiron": 4726,
      "Ġble": 4727,
      "Ġemer": 4728,
      "acity": 4729,
      "iment": 4730,
      "iger": 4731,
      "Ġplat": 4732,
      "Ġcourts": 4733,
      "Ġproposed": 4734,
      "Ġbully": 4735,
      "Ġoccur": 4736,
      "Ġbalance": 4737,
      "ĠGeorge": 4738,
      "Ġwalking": 4739,
      "Ġcatch": 4740,
      "Ġpension": 4741,
      "ĠTell": 4742,
      "Ġfeet": 4743,
      "Ġleading": 4744,
      "ONE": 4745,
      "Ġcreating": 4746,
      "Ġextremely": 4747,
      "Ġprofessional": 4748,
      "75": 4749,
      "ST": 4750,
      "itable": 4751,
      "Ġlines": 4752,
      "Ġgang": 4753,
      "Ġreaction": 4754,
      "Ġliars": 4755,
      "respect": 4756,
      "Ġunions": 4757,
      "arely": 4758,
      "Ġquote": 4759,
      "ossible": 4760,
      "ĠâĢĵ": 4761,
      "Ġempty": 4762,
      "Ġconclus": 4763,
      "Ġmisog": 4764,
      "Ġsucks": 4765,
      "200": 4766,
      "Ġswe": 4767,
      "vere": 4768,
      "Ġrating": 4769,
      "ĠFrench": 4770,
      "Ġroll": 4771,
      "ĠBron": 4772,
      "Ġcritical": 4773,
      "Ġenvironmental": 4774,
      "Ġlawyer": 4775,
      "Ġreveal": 4776,
      "St": 4777,
      "ront": 4778,
      "Ġtoward": 4779,
      "ĠTyp": 4780,
      "Ġgender": 4781,
      "Ġeh": 4782,
      "Ġalthough": 4783,
      "Ġuses": 4784,
      "Ġelectoral": 4785,
      "Ġincluded": 4786,
      "Ġforever": 4787,
      "Ġadvantage": 4788,
      "Ġeasier": 4789,
      "Ġentirely": 4790,
      "Ġteacher": 4791,
      "Ġtypes": 4792,
      "Ġdetermin": 4793,
      "Ġlawyers": 4794,
      "ĠDavid": 4795,
      "II": 4796,
      "rit": 4797,
      "ĠID": 4798,
      "ĠSA": 4799,
      "Ġshall": 4800,
      "Ġexerc": 4801,
      "Ġarri": 4802,
      "Ġtherefore": 4803,
      "Ġofficer": 4804,
      "Ġauthority": 4805,
      "Ġlaughing": 4806,
      "mine": 4807,
      "ĠAust": 4808,
      "outs": 4809,
      "ĠGreen": 4810,
      "Ġparent": 4811,
      "Ġregular": 4812,
      "Ġrecognize": 4813,
      "Ġbeliefs": 4814,
      "ĠNobody": 4815,
      "ureaucr": 4816,
      "Ġhusband": 4817,
      "Ġgain": 4818,
      "ĠDumb": 4819,
      "ĠEVER": 4820,
      "ĠHell": 4821,
      "Ġacknow": 4822,
      "Ġdecent": 4823,
      "Ġannoun": 4824,
      "Ġcelebr": 4825,
      "nel": 4826,
      "Ġloud": 4827,
      "imately": 4828,
      "Ġmerely": 4829,
      "Ġtrack": 4830,
      "Ġtells": 4831,
      "Ġpromises": 4832,
      "Ġtreated": 4833,
      "ĠSanders": 4834,
      "gl": 4835,
      "Ġboot": 4836,
      "orable": 4837,
      "alling": 4838,
      "ears": 4839,
      "erved": 4840,
      "Ġsupports": 4841,
      "Ġmiles": 4842,
      "ðŁ¤": 4843,
      "Ġvehicles": 4844,
      "Ġsavings": 4845,
      "Ġrelationship": 4846,
      "polit": 4847,
      "uke": 4848,
      "otic": 4849,
      "ĠCBC": 4850,
      "ĠOtt": 4851,
      "ĠFair": 4852,
      "Ġincor": 4853,
      "ĠUniversity": 4854,
      "umption": 4855,
      "ĠMayor": 4856,
      "ĠShould": 4857,
      "ĠHawaiian": 4858,
      "Ġbike": 4859,
      "Ġopposite": 4860,
      "mit": 4861,
      "Ġtit": 4862,
      "Ġtable": 4863,
      "vered": 4864,
      "ĠMill": 4865,
      "urd": 4866,
      "Ġchief": 4867,
      "Ġreply": 4868,
      "Ġcommunic": 4869,
      "Ġdepend": 4870,
      "Ġrepeated": 4871,
      "ĠApparently": 4872,
      "Ġentitled": 4873,
      "ĠLegisl": 4874,
      "ĠSeriously": 4875,
      "16": 4876,
      "Ġcant": 4877,
      "ĠColl": 4878,
      "ĠHigh": 4879,
      "Ġdoctors": 4880,
      "Ġefforts": 4881,
      "Ġallowing": 4882,
      "Ġmissing": 4883,
      "Ġversion": 4884,
      "500": 4885,
      "gun": 4886,
      "Ġchose": 4887,
      "Ġalive": 4888,
      "iped": 4889,
      "Ġscream": 4890,
      "Ġproviding": 4891,
      "Ġrelative": 4892,
      "Ġesc": 4893,
      "Ġhypocrites": 4894,
      "esterday": 4895,
      "reet": 4896,
      "Ġcell": 4897,
      "Ġtoler": 4898,
      "Ġnuts": 4899,
      "istan": 4900,
      "Ġuniversity": 4901,
      "Ġspir": 4902,
      "ucking": 4903,
      "Ġperpet": 4904,
      "ĠShame": 4905,
      "Ġparticularly": 4906,
      "ca": 4907,
      "inte": 4908,
      "Ġbes": 4909,
      "Ġfelt": 4910,
      "ĠTer": 4911,
      "lex": 4912,
      "ĠFe": 4913,
      "Ġmanip": 4914,
      "Ġunemploy": 4915,
      "Ġpolitically": 4916,
      "Ġflu": 4917,
      "viously": 4918,
      "Ġcutting": 4919,
      "Ġpromot": 4920,
      "Ġdemocratic": 4921,
      "Ġclowns": 4922,
      "Ġadults": 4923,
      "Ġliterally": 4924,
      "Ġlock": 4925,
      "ĠTex": 4926,
      "Ġeine": 4927,
      "ĠWynne": 4928,
      "ĠMake": 4929,
      "ĠStill": 4930,
      "Ġgotten": 4931,
      "Ġhistor": 4932,
      "Ġmovement": 4933,
      "Ġwonderful": 4934,
      "ĠExactly": 4935,
      "Ġbroke": 4936,
      "Ġsurvive": 4937,
      "AB": 4938,
      "esus": 4939,
      "Ġrot": 4940,
      "ĠNK": 4941,
      "Ġsuic": 4942,
      "Ġflood": 4943,
      "Ġenter": 4944,
      "Ġfunded": 4945,
      "Ġelsewhere": 4946,
      "Ġdealing": 4947,
      "Ġsmaller": 4948,
      "Ġdeny": 4949,
      "Ġspecif": 4950,
      "Ġanalysis": 4951,
      "hadr": 4952,
      "can": 4953,
      "Ġcens": 4954,
      "Ġmale": 4955,
      "edy": 4956,
      "ĠMark": 4957,
      "ĠLib": 4958,
      "Ġexcellent": 4959,
      "ubs": 4960,
      "Ġclosed": 4961,
      "hens": 4962,
      "Ġdeserves": 4963,
      "anned": 4964,
      "ĠANC": 4965,
      "Ġlobby": 4966,
      "ORE": 4967,
      "Ġbureaucr": 4968,
      "Ġpan": 4969,
      "ength": 4970,
      "lete": 4971,
      "ids": 4972,
      "ĠMer": 4973,
      "Ġcommer": 4974,
      "Ġconduct": 4975,
      "Ġcancer": 4976,
      "uell": 4977,
      "Ġpartisan": 4978,
      "Ġconsum": 4979,
      "Ġrob": 4980,
      "Ġremains": 4981,
      "Ġhardly": 4982,
      "Ġeffic": 4983,
      "Ġcredibility": 4984,
      "Ġteaching": 4985,
      "ĠChristian": 4986,
      "Ġgirl": 4987,
      "onald": 4988,
      "Ġpit": 4989,
      "oman": 4990,
      "Ġgold": 4991,
      "ĠDr": 4992,
      "ĠYep": 4993,
      "iev": 4994,
      "Ġimbe": 4995,
      "ograph": 4996,
      "Ġparking": 4997,
      "ugs": 4998,
      "Ġlands": 4999,
      "Ġapart": 5000,
      "Ġaffordable": 5001,
      "Ġfilled": 5002,
      "Ġestablish": 5003,
      "ĠMSM": 5004,
      "Ġaccurate": 5005,
      "ĠInteresting": 5006,
      "Ġdip": 5007,
      "Ġnamed": 5008,
      "ĠSC": 5009,
      "ĠBoy": 5010,
      "Ġexpand": 5011,
      "Ġlarger": 5012,
      "Ġbringing": 5013,
      "Ġregulations": 5014,
      "ked": 5015,
      "mber": 5016,
      "xic": 5017,
      "rep": 5018,
      "Ġmath": 5019,
      "ĠDam": 5020,
      "anted": 5021,
      "ulu": 5022,
      "ago": 5023,
      "Ġ13": 5024,
      "Ġaccus": 5025,
      "gressive": 5026,
      "ĠSchool": 5027,
      "UMP": 5028,
      "dem": 5029,
      "á´": 5030,
      "Ġtact": 5031,
      "ishes": 5032,
      "andal": 5033,
      "Ġoutcome": 5034,
      "Ġcounty": 5035,
      "Ġflat": 5036,
      "Ġends": 5037,
      "Ġoptions": 5038,
      "Ġdividend": 5039,
      "Ġvoice": 5040,
      "informed": 5041,
      "ĠCouncil": 5042,
      "Ch": 5043,
      "owers": 5044,
      "rus": 5045,
      "Ġarms": 5046,
      "ĠJim": 5047,
      "ĠGov": 5048,
      "Ġblacks": 5049,
      "Ġcondem": 5050,
      "Ġperspective": 5051,
      "Ġearlier": 5052,
      "Ġdelusional": 5053,
      "Ġfiscal": 5054,
      "22": 5055,
      "gt": 5056,
      "mar": 5057,
      "iner": 5058,
      "Ġnative": 5059,
      "ĠAL": 5060,
      "ulate": 5061,
      "term": 5062,
      "ĠFunny": 5063,
      "Ġeverywhere": 5064,
      "Ġcold": 5065,
      "Ġassum": 5066,
      "Ġplayer": 5067,
      "Ġadditional": 5068,
      "Ġcomplex": 5069,
      "under": 5070,
      "Ġexperi": 5071,
      "ĠTrans": 5072,
      "ĠGeneral": 5073,
      "ville": 5074,
      "arning": 5075,
      "Ġfort": 5076,
      "ĠWE": 5077,
      "ĠMo": 5078,
      "Ġdepl": 5079,
      "ĠOver": 5080,
      "ĠGoogle": 5081,
      "Ġals": 5082,
      "osex": 5083,
      "Ġsurr": 5084,
      "Ġbitch": 5085,
      "Ġoccup": 5086,
      "Ġvisit": 5087,
      "Ġrepeal": 5088,
      "ĠðŁĺ": 5089,
      "ription": 5090,
      "Ġbond": 5091,
      "itation": 5092,
      "imm": 5093,
      "ĠGot": 5094,
      "ĠKhadr": 5095,
      "Ġcontact": 5096,
      "Ġstudies": 5097,
      "Ġpromised": 5098,
      "Ġjoin": 5099,
      "ĠMean": 5100,
      "Ġphoto": 5101,
      "tw": 5102,
      "Ġsand": 5103,
      "Ġeight": 5104,
      "Ġstuck": 5105,
      "ĠMart": 5106,
      "ĠOil": 5107,
      "Ġoffensive": 5108,
      "Ġcontent": 5109,
      "Ġconsidering": 5110,
      "Ġplanning": 5111,
      "Ġfeeling": 5112,
      "Ġsigned": 5113,
      "Ġcolor": 5114,
      "aaaa": 5115,
      "Ġ:)": 5116,
      "Ġpunish": 5117,
      "dro": 5118,
      "Ġtro": 5119,
      "inary": 5120,
      "Ġcast": 5121,
      "Ġmut": 5122,
      "Ġdishon": 5123,
      "Ġseek": 5124,
      "icken": 5125,
      "Ġcoff": 5126,
      "Ġcovered": 5127,
      "!!!!!": 5128,
      "Ġignored": 5129,
      "Ġaus": 5130,
      "Ġdate": 5131,
      "ett": 5132,
      "ĠSaud": 5133,
      "ĠWW": 5134,
      "ĠWall": 5135,
      "Ġwearing": 5136,
      "Ġrhet": 5137,
      "ĠMon": 5138,
      "Ġsoft": 5139,
      "ums": 5140,
      "Ġagencies": 5141,
      "Ġacts": 5142,
      "Ġinterview": 5143,
      "Ġfinal": 5144,
      "Ġpresidential": 5145,
      "Ġincludes": 5146,
      "Ġhearing": 5147,
      "Ġemails": 5148,
      "ĠSomeone": 5149,
      "ĠOttawa": 5150,
      "cast": 5151,
      "lers": 5152,
      "itz": 5153,
      "ĠTod": 5154,
      "Ġdefe": 5155,
      "Ġcontext": 5156,
      "izes": 5157,
      "Ġimplement": 5158,
      "Ġconspir": 5159,
      "Ġruns": 5160,
      "ĠCommun": 5161,
      "45": 5162,
      "AP": 5163,
      "wide": 5164,
      "Ġyesterday": 5165,
      "ĠAh": 5166,
      "Ġcomfort": 5167,
      "ĠFranc": 5168,
      "Ġteams": 5169,
      "ĠAmendment": 5170,
      "ipped": 5171,
      "Ġreach": 5172,
      "char": 5173,
      "raft": 5174,
      "agan": 5175,
      "Ġattend": 5176,
      "Ġregist": 5177,
      "Ġstarts": 5178,
      "Ġworthless": 5179,
      "Ġdesigned": 5180,
      "Ġnewspaper": 5181,
      "CE": 5182,
      "ĠIM": 5183,
      "stream": 5184,
      "Ġforces": 5185,
      "Ġstyle": 5186,
      "illed": 5187,
      "ĠĠĠĠĠ": 5188,
      "Ġincident": 5189,
      "Ġshel": 5190,
      "issions": 5191,
      "Ġreaders": 5192,
      "Ġinside": 5193,
      "ĠBrown": 5194,
      "ĠYOUR": 5195,
      "ĠNext": 5196,
      "Ġpolls": 5197,
      "educated": 5198,
      "iocy": 5199,
      "ĠHitler": 5200,
      "Ġseat": 5201,
      "Ġselect": 5202,
      "ĠJan": 5203,
      "Ġcompens": 5204,
      "Ġgrade": 5205,
      "Ġimpossible": 5206,
      "tax": 5207,
      "Ġconcerns": 5208,
      "Ġsusp": 5209,
      "Ġirrelevant": 5210,
      "Ġwebsite": 5211,
      "KK": 5212,
      "uer": 5213,
      "Ġsac": 5214,
      "Ġdass": 5215,
      "ĠBro": 5216,
      "Ġleftist": 5217,
      "Ġbusy": 5218,
      "Ġstands": 5219,
      "Ġreleased": 5220,
      "erate": 5221,
      "Ġmix": 5222,
      "Ġhuh": 5223,
      "ales": 5224,
      "ĠAS": 5225,
      "ĠSl": 5226,
      "Ġprohib": 5227,
      "rial": 5228,
      "Ġoffered": 5229,
      "Ġsolar": 5230,
      "Ġfunction": 5231,
      "Ġweapon": 5232,
      "Ġsuffer": 5233,
      "Ġbeautiful": 5234,
      "Ġlatest": 5235,
      "rate": 5236,
      "arms": 5237,
      "ĠPence": 5238,
      "cious": 5239,
      "izations": 5240,
      "ounded": 5241,
      "Ġcommission": 5242,
      "gging": 5243,
      "Ġemployment": 5244,
      "ĠFrank": 5245,
      "Ġsocialist": 5246,
      "****": 5247,
      "owski": 5248,
      "Ġanimal": 5249,
      "Ġactivity": 5250,
      "Ġappreciate": 5251,
      "aire": 5252,
      "urb": 5253,
      "ores": 5254,
      "ĠNazis": 5255,
      "andon": 5256,
      "ights": 5257,
      "ĠUs": 5258,
      "ĠKen": 5259,
      "Ġscam": 5260,
      "ahu": 5261,
      "ĠObviously": 5262,
      "Ġallows": 5263,
      "Ġsky": 5264,
      "Ġmotiv": 5265,
      "ĠBritish": 5266,
      "OC": 5267,
      "aus": 5268,
      "free": 5269,
      "ique": 5270,
      "wor": 5271,
      "Ġgut": 5272,
      "ĠSame": 5273,
      "ĠNative": 5274,
      "Ġsummer": 5275,
      "Ġclot": 5276,
      "Ġrural": 5277,
      "Ġlegally": 5278,
      "olly": 5279,
      "Ġextrem": 5280,
      "Ġdestroyed": 5281,
      "Ġvacation": 5282,
      "In": 5283,
      "Ġboss": 5284,
      "Ġbanks": 5285,
      "Ġfuck": 5286,
      "Ġreact": 5287,
      "acht": 5288,
      "ĠSH": 5289,
      "osen": 5290,
      "ĠIsland": 5291,
      "Ġdrinking": 5292,
      "Ġreturns": 5293,
      "Ġwestern": 5294,
      "Ġcomputer": 5295,
      "EC": 5296,
      "mor": 5297,
      "iders": 5298,
      "ĠCould": 5299,
      "Ġacadem": 5300,
      "Ġidiocy": 5301,
      "Ġcheaper": 5302,
      "Ġfinding": 5303,
      "Ġideology": 5304,
      "Ġthoughts": 5305,
      "who": 5306,
      "Ġminds": 5307,
      "Ġdirection": 5308,
      "Ġcircum": 5309,
      "Ġexecutive": 5310,
      "UN": 5311,
      "dom": 5312,
      "post": 5313,
      "Ã©": 5314,
      "Ġtaught": 5315,
      "Ġreduced": 5316,
      "Ġheck": 5317,
      "ĠSB": 5318,
      "Ġhair": 5319,
      "ĠWhe": 5320,
      "Ġrange": 5321,
      "iling": 5322,
      "Ġlearning": 5323,
      "Ġdise": 5324,
      "Ġcoast": 5325,
      "Ġwinter": 5326,
      "ĠDisgusting": 5327,
      "ueless": 5328,
      "DS": 5329,
      "ias": 5330,
      "rehens": 5331,
      "isa": 5332,
      "itical": 5333,
      "anch": 5334,
      "ĠAbs": 5335,
      "ĠWr": 5336,
      "Ġwear": 5337,
      "Ġweather": 5338,
      "ĠMil": 5339,
      "ĠDan": 5340,
      "ockey": 5341,
      "Ġdisplay": 5342,
      "Ġdisrespect": 5343,
      "Ġgrab": 5344,
      "Ġrubb": 5345,
      "Ġtruck": 5346,
      "Ġpublicly": 5347,
      "Ġwatched": 5348,
      "Ġinfo": 5349,
      "Ġintended": 5350,
      "Ġcenter": 5351,
      "Ġtreason": 5352,
      "Ġpercentage": 5353,
      "ĠWestern": 5354,
      "Ġcrying": 5355,
      "Ġgovernor": 5356,
      "Ġindependent": 5357,
      "Ġconflict": 5358,
      "Ġdomestic": 5359,
      "isted": 5360,
      "Ġsearch": 5361,
      "ĠLE": 5362,
      "unior": 5363,
      "Ġupset": 5364,
      "Ġourselves": 5365,
      "ancing": 5366,
      "Ġdiscrimin": 5367,
      "Ġsale": 5368,
      "Ġexisting": 5369,
      "Ġsubsidies": 5370,
      "Ġradical": 5371,
      "stein": 5372,
      "Ġstrugg": 5373,
      "Ġwood": 5374,
      "sters": 5375,
      "Ġeast": 5376,
      "Ġhaben": 5377,
      "istics": 5378,
      "Ġsud": 5379,
      "Ġnoch": 5380,
      "Ġfee": 5381,
      "Ġapproval": 5382,
      "Ġturning": 5383,
      "AFTA": 5384,
      "Ġwitness": 5385,
      "ĠTypical": 5386,
      "she": 5387,
      "Ġx": 5388,
      "Ġsin": 5389,
      "lying": 5390,
      "ĠCath": 5391,
      "alley": 5392,
      "ĠMike": 5393,
      "Ġsuit": 5394,
      "ĠEarth": 5395,
      "tered": 5396,
      "Ġcomplic": 5397,
      "Ġhealthy": 5398,
      "Ġfollowed": 5399,
      "IST": 5400,
      "Ġbiased": 5401,
      "ÂŃÂŃÂŃÂŃ": 5402,
      "Ġperformance": 5403,
      "Ġintegrity": 5404,
      "bus": 5405,
      "erg": 5406,
      "Ġdaughter": 5407,
      "ĠIch": 5408,
      "Ġonto": 5409,
      "ĠSessions": 5410,
      "ĠCH": 5411,
      "Ġrig": 5412,
      "uman": 5413,
      "Ġchildish": 5414,
      "Ġeconomics": 5415,
      "Ġprofession": 5416,
      "Ġsolve": 5417,
      "ART": 5418,
      "Ġtrolls": 5419,
      "Ġannual": 5420,
      "Ġsubstant": 5421,
      "Ġenemy": 5422,
      "HT": 5423,
      "run": 5424,
      "ĠPC": 5425,
      "uls": 5426,
      "ĠRock": 5427,
      "Ġblah": 5428,
      "Ġamendment": 5429,
      "Ġputs": 5430,
      "ĠIsn": 5431,
      "annon": 5432,
      "Ġpublished": 5433,
      "Ġnarrative": 5434,
      "Ġduty": 5435,
      "Ġband": 5436,
      "ĠFOR": 5437,
      "eless": 5438,
      "Ġmanaged": 5439,
      "Ġposter": 5440,
      "Ġobst": 5441,
      "standing": 5442,
      "Ġrestaur": 5443,
      "Ġraising": 5444,
      "Ġadministr": 5445,
      "lom": 5446,
      "atics": 5447,
      "atically": 5448,
      "Ġdum": 5449,
      "ĠMiddle": 5450,
      "Ġabortion": 5451,
      "artic": 5452,
      "Ġsupporter": 5453,
      "Ġtrial": 5454,
      "Ġsociopath": 5455,
      "HAHA": 5456,
      "Ġpurchase": 5457,
      "?)": 5458,
      "LD": 5459,
      "ham": 5460,
      "Ġwake": 5461,
      "Ġciv": 5462,
      "oring": 5463,
      "orse": 5464,
      "Ġdude": 5465,
      "ĠHas": 5466,
      "ĠNAFTA": 5467,
      "ĠDes": 5468,
      "ĠEr": 5469,
      "ĠElect": 5470,
      "ĠJesus": 5471,
      "ips": 5472,
      "Ġbackground": 5473,
      "akers": 5474,
      "ords": 5475,
      "Ġscen": 5476,
      "Ġsmoking": 5477,
      "Ġhateful": 5478,
      "Ġintention": 5479,
      "ĠSecond": 5480,
      "Ġchallenge": 5481,
      "igenous": 5482,
      "Ġplatform": 5483,
      "Ġspecifically": 5484,
      "aerb": 5485,
      "hole": 5486,
      "nic": 5487,
      "ĠčĊ": 5488,
      "Ġsustain": 5489,
      "Ġnorth": 5490,
      "Ġrelevant": 5491,
      "ĠPark": 5492,
      "Ġcann": 5493,
      "abis": 5494,
      "Ġih": 5495,
      "Ġminute": 5496,
      "Ġpassing": 5497,
      "Ġexamples": 5498,
      "Ġdeaths": 5499,
      "Ġlucky": 5500,
      "ĠJeff": 5501,
      "ĠJuneau": 5502,
      "ĠFrancis": 5503,
      "point": 5504,
      "ĠtR": 5505,
      "Ġwise": 5506,
      "Ġcore": 5507,
      "anz": 5508,
      "verse": 5509,
      "ĠSuch": 5510,
      "ĠBob": 5511,
      "Ġath": 5512,
      "Ġexemp": 5513,
      "Ġrequest": 5514,
      "Ġdepartment": 5515,
      "Ġcapacity": 5516,
      "Ġinflation": 5517,
      "Ġhoping": 5518,
      "ĠAustral": 5519,
      "iar": 5520,
      "spe": 5521,
      "asion": 5522,
      "ĠTra": 5523,
      "ĠAtt": 5524,
      "Ġaside": 5525,
      "Ġdiss": 5526,
      "Ġsaved": 5527,
      "Ġblock": 5528,
      "Ġassess": 5529,
      "gged": 5530,
      "Ġproperly": 5531,
      "Ġboys": 5532,
      "Ġstrategy": 5533,
      "Ġachieve": 5534,
      "Ġconspiracy": 5535,
      "nen": 5536,
      "Ġ;": 5537,
      "Ġfel": 5538,
      "Ġgro": 5539,
      "Ġgross": 5540,
      "eoples": 5541,
      "elf": 5542,
      "lick": 5543,
      "ĠHealth": 5544,
      "Ġappeal": 5545,
      "Ġbright": 5546,
      "Ġthrowing": 5547,
      "Ġended": 5548,
      "Ġwins": 5549,
      "Ġrequires": 5550,
      "Ġdistract": 5551,
      "Ġveter": 5552,
      "Ġdetails": 5553,
      "going": 5554,
      "Ġadmitted": 5555,
      "ĠSecret": 5556,
      "Ġiniti": 5557,
      "Ġseparate": 5558,
      "Ġimpeach": 5559,
      "respons": 5560,
      "Ġsudden": 5561,
      "aerbock": 5562,
      "Ġpra": 5563,
      "Ġmount": 5564,
      "ĠCAN": 5565,
      "olulu": 5566,
      "ĠDas": 5567,
      "aste": 5568,
      "Ġarm": 5569,
      "Ġunivers": 5570,
      "Ġadvert": 5571,
      "Ġtalent": 5572,
      "ĠUnion": 5573,
      "Ġaddition": 5574,
      "Ġserving": 5575,
      "Ġfailing": 5576,
      "Ġintro": 5577,
      "ðŁĺ": 5578,
      "Ġlimits": 5579,
      "Ġdraw": 5580,
      "Ġreferring": 5581,
      "Ġcompetition": 5582,
      "ĠGuess": 5583,
      "Ġconstitutional": 5584,
      "ĠTexas": 5585,
      "ueller": 5586,
      "ĠMeanwhile": 5587,
      "17": 5588,
      "gar": 5589,
      "ius": 5590,
      "rich": 5591,
      "yl": 5592,
      "yan": 5593,
      "aded": 5594,
      "acc": 5595,
      "ĠMP": 5596,
      "urg": 5597,
      "ĠPres": 5598,
      "Ġapplic": 5599,
      "ĠChief": 5600,
      "Ġspeaks": 5601,
      "Ġbrand": 5602,
      "Ġrefused": 5603,
      "Ġdrink": 5604,
      "mmm": 5605,
      "Ġequally": 5606,
      "Ġequival": 5607,
      "shit": 5608,
      "Ġbabies": 5609,
      "Ġstores": 5610,
      "IR": 5611,
      "Ġ!!!": 5612,
      "Ġtim": 5613,
      "Ġwars": 5614,
      "Ġpupp": 5615,
      "etz": 5616,
      "verty": 5617,
      "orted": 5618,
      "ĠRed": 5619,
      "ĠUnt": 5620,
      "cient": 5621,
      "Ġclueless": 5622,
      "Ġpoverty": 5623,
      "onder": 5624,
      "Ġmatch": 5625,
      "ï¿½ï¿½ï¿½ï¿½": 5626,
      "Ġpressure": 5627,
      "Ġmisogyn": 5628,
      "ĠBroncos": 5629,
      "Ġodd": 5630,
      "omen": 5631,
      "add": 5632,
      "resh": 5633,
      "unte": 5634,
      "ivity": 5635,
      "Ġappe": 5636,
      "ĠInc": 5637,
      "Ġchem": 5638,
      "ĠProbably": 5639,
      "Ġtrees": 5640,
      "ĠEuropean": 5641,
      "Ġperfectly": 5642,
      "ĠBetter": 5643,
      "Ġcabinet": 5644,
      "Ġeditorial": 5645,
      "TF": 5646,
      "Ġbub": 5647,
      "Ġconven": 5648,
      "Ġoffense": 5649,
      "ĠChar": 5650,
      "Ġdecade": 5651,
      "Ġcontrolled": 5652,
      "Ġpromote": 5653,
      "Ġreplaced": 5654,
      "Ġfrequ": 5655,
      "AGA": 5656,
      "Ġprepared": 5657,
      "Ġcomparison": 5658,
      "Ġdismiss": 5659,
      "Ġmortgage": 5660,
      "Ġdishonest": 5661,
      "field": 5662,
      "Ġtheory": 5663,
      "Ġwird": 5664,
      "Ġpal": 5665,
      "Ġmob": 5666,
      "change": 5667,
      "Ġresist": 5668,
      "Ġblat": 5669,
      "Ġsmell": 5670,
      "Ġfeels": 5671,
      "Ġcausing": 5672,
      "Ġdestruction": 5673,
      "ĠArab": 5674,
      "Ġapproved": 5675,
      "Ġaccountable": 5676,
      "Ġensure": 5677,
      "Ġticket": 5678,
      "Ġrecommend": 5679,
      "SE": 5680,
      "isf": 5681,
      "ĠHard": 5682,
      "ĠMich": 5683,
      "Ġdeals": 5684,
      "ĠGee": 5685,
      "ĠThink": 5686,
      "ocal": 5687,
      "ĠTrumps": 5688,
      "Ġarmed": 5689,
      "Ġoblig": 5690,
      "Ġolder": 5691,
      "Ġconstantly": 5692,
      "Ġdestroying": 5693,
      "Ġembarrassment": 5694,
      "Ġharass": 5695,
      "Ġaccomplish": 5696,
      "Ġprovincial": 5697,
      "Ġmusic": 5698,
      "05": 5699,
      "18": 5700,
      "kowski": 5701,
      "nch": 5702,
      "oks": 5703,
      "onn": 5704,
      "acists": 5705,
      "ĠGiven": 5706,
      "ĠLyn": 5707,
      "Ġcloser": 5708,
      "ounding": 5709,
      "Ġpayments": 5710,
      "Ġletting": 5711,
      "Ġpatri": 5712,
      "aldwell": 5713,
      "Ġcauses": 5714,
      "Ġmaintain": 5715,
      "ĠDef": 5716,
      "Ġlabor": 5717,
      "Ġdisappoint": 5718,
      "Ġconstitu": 5719,
      "Ġrhetoric": 5720,
      "UM": 5721,
      "ino": 5722,
      "Ġboo": 5723,
      "Ġthats": 5724,
      "ĠOp": 5725,
      "ĠUK": 5726,
      "Ġassert": 5727,
      "Ġgreatest": 5728,
      "ĠUnless": 5729,
      "luding": 5730,
      "Ġcontinued": 5731,
      "gov": 5732,
      "Ġownership": 5733,
      "ĠAfrica": 5734,
      "ĠPortland": 5735,
      "Ġrubbish": 5736,
      "ael": 5737,
      "Ġ.....": 5738,
      "Ġtort": 5739,
      "icy": 5740,
      "isten": 5741,
      "ĠOff": 5742,
      "Ġcompass": 5743,
      "Ġdefending": 5744,
      "itsch": 5745,
      "Ġignoring": 5746,
      "Ġseries": 5747,
      "Ġoppon": 5748,
      "Ġmarkets": 5749,
      "Ġbuildings": 5750,
      "Ġemail": 5751,
      "Ġsuggesting": 5752,
      "prof": 5753,
      "Ġballot": 5754,
      "Ġlabel": 5755,
      "ĠJapan": 5756,
      "ĠtRump": 5757,
      "equ": 5758,
      "laughter": 5759,
      "rated": 5760,
      "Ġnomin": 5761,
      "icial": 5762,
      "Ġbeg": 5763,
      "iden": 5764,
      "ĠCont": 5765,
      "irk": 5766,
      "Ġoverall": 5767,
      "Ġherself": 5768,
      "liament": 5769,
      "Ġslight": 5770,
      "Ġsalary": 5771,
      "Ġillegals": 5772,
      "Ġbreaking": 5773,
      "Ġsuperior": 5774,
      "Ġscrewed": 5775,
      "Ġlicense": 5776,
      "UG": 5777,
      "och": 5778,
      "sm": 5779,
      "hem": 5780,
      "ĠFace": 5781,
      "Ġunable": 5782,
      "Ġspl": 5783,
      "Ġquiet": 5784,
      "ĠStep": 5785,
      "Ġaccused": 5786,
      "Ġfundament": 5787,
      "Ġillegally": 5788,
      "UST": 5789,
      "Ġradio": 5790,
      "Ġearning": 5791,
      "Ġpremium": 5792,
      "Ġpushing": 5793,
      "ĠHonolulu": 5794,
      "Ġthread": 5795,
      "Ġwhining": 5796,
      "Ġstage": 5797,
      "ĠSat": 5798,
      "Ġnoticed": 5799,
      "enders": 5800,
      "Ġwanting": 5801,
      "aha": 5802,
      "place": 5803,
      "Ġclaimed": 5804,
      "Ġprotecting": 5805,
      "ĠRegard": 5806,
      "Ġscientific": 5807,
      "HING": 5808,
      "PA": 5809,
      "board": 5810,
      "gment": 5811,
      "Ġcart": 5812,
      "Ġcode": 5813,
      "Ġoce": 5814,
      "asp": 5815,
      "Ġstation": 5816,
      "Ġash": 5817,
      "ĠPoor": 5818,
      "Ġproves": 5819,
      "Ġaber": 5820,
      "ĠRob": 5821,
      "ĠLast": 5822,
      "ivan": 5823,
      "overed": 5824,
      "Ġexposed": 5825,
      "ossil": 5826,
      "Ġaddict": 5827,
      "Ġpowerful": 5828,
      "ĠTHIS": 5829,
      "Ġsigns": 5830,
      "Ġsites": 5831,
      "Ġdeveloped": 5832,
      "Ġburden": 5833,
      "Ġwow": 5834,
      "lle": 5835,
      "ashing": 5836,
      "Ġreduc": 5837,
      "ĠAM": 5838,
      "ĠPublic": 5839,
      "Ġseats": 5840,
      "ĠFree": 5841,
      "Ġcoach": 5842,
      "Ġsolid": 5843,
      "Ġloved": 5844,
      "Ġlistening": 5845,
      "ĠBeing": 5846,
      "Ġassets": 5847,
      "Ġmachine": 5848,
      "13": 5849,
      "ghan": 5850,
      "Ġ+": 5851,
      "ona": 5852,
      "Ġwann": 5853,
      "orate": 5854,
      "Ġhired": 5855,
      "Ġhockey": 5856,
      "ĠTimes": 5857,
      "ads": 5858,
      "oler": 5859,
      "Ġjunk": 5860,
      "Ġagency": 5861,
      "Ġpayer": 5862,
      "Ġamb": 5863,
      "Ġcondition": 5864,
      "Ġbehavi": 5865,
      "Ġembarrassing": 5866,
      "Ġrenew": 5867,
      "ek": 5868,
      "hand": 5869,
      "wr": 5870,
      "ese": 5871,
      "Ġyell": 5872,
      "iday": 5873,
      "ĠMueller": 5874,
      "ĠLooks": 5875,
      "Ġworried": 5876,
      "Ġfactor": 5877,
      "ĠVer": 5878,
      "Ġdistrib": 5879,
      "Ġengage": 5880,
      "ĠDepartment": 5881,
      "Ġgradu": 5882,
      "Ġdiplom": 5883,
      "ĠToday": 5884,
      "Can": 5885,
      "hal": 5886,
      "Ġpeoples": 5887,
      "esome": 5888,
      "Ġmarch": 5889,
      "Ġdomin": 5890,
      "ĠPri": 5891,
      "ĠFre": 5892,
      "Ġjustify": 5893,
      "ĠEv": 5894,
      "ĠKKK": 5895,
      "Ġspew": 5896,
      "Ġboat": 5897,
      "Ġtransfer": 5898,
      "ATE": 5899,
      "Ġexpert": 5900,
      "Ġmeetings": 5901,
      "Ġinvolve": 5902,
      "Ġcultural": 5903,
      "Ġpenalty": 5904,
      "Ġwerden": 5905,
      "Ġethics": 5906,
      "Ġtemper": 5907,
      "ĠMedicare": 5908,
      "Ġelectricity": 5909,
      "ĠSaudi": 5910,
      "EE": 5911,
      "If": 5912,
      "RC": 5913,
      "cons": 5914,
      "fall": 5915,
      "Ġfirm": 5916,
      "Ġmun": 5917,
      "Ġweed": 5918,
      "ĠBannon": 5919,
      "Ġdele": 5920,
      "ĠDer": 5921,
      "Ġexists": 5922,
      "ĠJames": 5923,
      "Ġadvis": 5924,
      "Ġturns": 5925,
      "Ġmarried": 5926,
      "Ġaccounts": 5927,
      "Ġawful": 5928,
      "Ġthousand": 5929,
      "Ġdropped": 5930,
      "ĠMurkowski": 5931,
      "aven": 5932,
      "iert": 5933,
      "ship": 5934,
      "Ġain": 5935,
      "Ġbail": 5936,
      "Ġpil": 5937,
      "icago": 5938,
      "Ġgolf": 5939,
      "resents": 5940,
      "ĠFund": 5941,
      "Ġmanner": 5942,
      "Ġconsult": 5943,
      "neau": 5944,
      "Ġdesire": 5945,
      "Ġhelps": 5946,
      "Ġthroughout": 5947,
      "Ġdriven": 5948,
      "Ġsexist": 5949,
      "Ġsalaries": 5950,
      "Ġattacked": 5951,
      "Ġeffects": 5952,
      "Ġterrorism": 5953,
      "Ġfalling": 5954,
      "Ġhorse": 5955,
      "Ġcontribute": 5956,
      "Ġsuffering": 5957,
      "good": 5958,
      "ument": 5959,
      "vention": 5960,
      "erving": 5961,
      "Ġfucking": 5962,
      "ĠTom": 5963,
      "Ġbears": 5964,
      "ĠCaldwell": 5965,
      "Ġabandon": 5966,
      "ĠThom": 5967,
      "Ġmax": 5968,
      "Ġuneducated": 5969,
      "Ġparas": 5970,
      "Ġdemocrat": 5971,
      "Ġhypocritical": 5972,
      "Ġcredits": 5973,
      "Ġfavour": 5974,
      "ĠSecurity": 5975,
      "Ġfilth": 5976,
      "!!!!!!!!!!!!!!!!": 5977,
      "Ġcommittee": 5978,
      "----------------": 5979,
      "Ġcircumst": 5980,
      "And": 5981,
      "gency": 5982,
      "ĠÃ¼": 5983,
      "Ġpiss": 5984,
      "Ġbell": 5985,
      "see": 5986,
      "ĠWay": 5987,
      "Ġexact": 5988,
      "this": 5989,
      "Ġincent": 5990,
      "oha": 5991,
      "tenance": 5992,
      "ĠFrance": 5993,
      "Ġpoorly": 5994,
      "Ġjudges": 5995,
      "Ġresource": 5996,
      "Ġpathological": 5997,
      "Ġutterly": 5998,
      "ĠDNC": 5999,
      "itschuster": 6000,
      "ties": 6001,
      "ANT": 6002,
      "asm": 6003,
      "Ġforum": 6004,
      "ĠSan": 6005,
      "Ġsea": 6006,
      "ĠEither": 6007,
      "Ġgrown": 6008,
      "ĠViet": 6009,
      "Ġprovides": 6010,
      "Ġfewer": 6011,
      "Ġpurs": 6012,
      "Ġmargin": 6013,
      "Ġfirearms": 6014,
      "ĠLeaf": 6015,
      "Ġhomosex": 6016,
      "Ġscientists": 6017,
      "iveness": 6018,
      "Ġnarcissistic": 6019,
      "Ġessentially": 6020,
      "Ġmaterial": 6021,
      "vy": 6022,
      "Ġant": 6023,
      "edly": 6024,
      "ĠWait": 6025,
      "Ġweight": 6026,
      "ĠMac": 6027,
      "ĠPerson": 6028,
      "Ġwasted": 6029,
      "ĠDa": 6030,
      "Ġcontemp": 6031,
      "ulf": 6032,
      "Ġexcess": 6033,
      "osure": 6034,
      "Ġsake": 6035,
      "Ġprec": 6036,
      "Ġlefty": 6037,
      "Ġsla": 6038,
      "Ġplane": 6039,
      "Ġemployer": 6040,
      "Ġconvicted": 6041,
      "Ġpersons": 6042,
      "Ġbalanced": 6043,
      "Ġdetermine": 6044,
      "Ġpedoph": 6045,
      "Ġbreath": 6046,
      "mo": 6047,
      "Ġcamer": 6048,
      "Ġgains": 6049,
      "Ġkann": 6050,
      "ulations": 6051,
      "ĠFly": 6052,
      "ĠEU": 6053,
      "Ġcomprom": 6054,
      "Ġgoods": 6055,
      "Ġexpenses": 6056,
      "Ġharder": 6057,
      "Ġselfish": 6058,
      "ructive": 6059,
      "Ġthreats": 6060,
      "Ġpredator": 6061,
      "ilarious": 6062,
      "Ġvolunte": 6063,
      "ĠTRUMP": 6064,
      "Ġpretend": 6065,
      "Ġhospital": 6066,
      "ĠBLM": 6067,
      "face": 6068,
      "jud": 6069,
      "ware": 6070,
      "Ġfought": 6071,
      "Ġlit": 6072,
      "icing": 6073,
      "outing": 6074,
      "Ġvul": 6075,
      "uma": 6076,
      "raw": 6077,
      "Ġplants": 6078,
      "Ġblaming": 6079,
      "ĠChicago": 6080,
      "Ġpointing": 6081,
      "Ġthrown": 6082,
      "Ġregime": 6083,
      "Ġprotected": 6084,
      "ikiped": 6085,
      "Ġamounts": 6086,
      "ĠJohnson": 6087,
      "Ġdescribe": 6088,
      "Ġorders": 6089,
      "Ġincorrect": 6090,
      "ĠUntil": 6091,
      "Ġ)": 6092,
      "Ġton": 6093,
      "orough": 6094,
      "Ġmig": 6095,
      "Ġlame": 6096,
      "omed": 6097,
      "ĠTre": 6098,
      "ĠSull": 6099,
      "ĠMens": 6100,
      "ĠNone": 6101,
      "ĠOut": 6102,
      "riage": 6103,
      "Ġmeat": 6104,
      "cile": 6105,
      "Ġbrains": 6106,
      "ussy": 6107,
      "Ã¤t": 6108,
      "Ġelite": 6109,
      "ception": 6110,
      "ĠClark": 6111,
      "Ġcollusion": 6112,
      "Ġwondering": 6113,
      "Ġcapt": 6114,
      "Ġinformed": 6115,
      "ĠSadly": 6116,
      "Ġsnowfl": 6117,
      "Ġearned": 6118,
      "umerous": 6119,
      "Ġgovt": 6120,
      "ikipedia": 6121,
      "!)": 6122,
      ".'": 6123,
      "03": 6124,
      "bi": 6125,
      "bre": 6126,
      "iest": 6127,
      "krain": 6128,
      "Ġbird": 6129,
      "Ġbei": 6130,
      "Ġrain": 6131,
      "Ġjack": 6132,
      "pper": 6133,
      "Ġleaves": 6134,
      "ĠTrue": 6135,
      "Ġrepresents": 6136,
      "Ġbrown": 6137,
      "Ġscale": 6138,
      "Ġcorner": 6139,
      "aska": 6140,
      "them": 6141,
      "ĠReagan": 6142,
      "Ġloose": 6143,
      "Ġbreaks": 6144,
      "ĠAfghan": 6145,
      "ĠCheck": 6146,
      "Ġestablished": 6147,
      "Ġphysical": 6148,
      "ĠMedicaid": 6149,
      "Ġencourage": 6150,
      "Ġcustomers": 6151,
      "ĠAbsolute": 6152,
      "hered": 6153,
      "Ġsir": 6154,
      "ĠCare": 6155,
      "ĠBank": 6156,
      "ĠNope": 6157,
      "ĠNAT": 6158,
      "Ġblue": 6159,
      "Ġscr": 6160,
      "anged": 6161,
      "Ġforest": 6162,
      "Ġprotesting": 6163,
      "Ġneighbors": 6164,
      "Ġemotional": 6165,
      "Ġashamed": 6166,
      "\"...": 6167,
      "American": 6168,
      "mark": 6169,
      "net": 6170,
      "vi": 6171,
      "wer": 6172,
      "Ġtight": 6173,
      "Ġsore": 6174,
      "Ġbeer": 6175,
      "ĠBoard": 6176,
      "ĠYup": 6177,
      "abs": 6178,
      "ĠFact": 6179,
      "Ġadop": 6180,
      "Ġpool": 6181,
      "ĠStreet": 6182,
      "ĠIntern": 6183,
      "Ġattorney": 6184,
      "aik": 6185,
      "Ġclaiming": 6186,
      "Ġsetting": 6187,
      "Ġerror": 6188,
      "Ġfixed": 6189,
      "ĠIndian": 6190,
      "Ġirrespons": 6191,
      "Ġcomplaining": 6192,
      "Ġmulti": 6193,
      "Ġnecessarily": 6194,
      "Ġqualified": 6195,
      "Ġpocket": 6196,
      "UPID": 6197,
      "Ġdesperate": 6198,
      "Ġincredibly": 6199,
      "ĠAccording": 6200,
      "Ġslavery": 6201,
      "-)": 6202,
      "kers": 6203,
      "whel": 6204,
      "Ġfossil": 6205,
      "Ġdare": 6206,
      "Ġhook": 6207,
      "alks": 6208,
      "ĠAK": 6209,
      "ĠServ": 6210,
      "ĠCE": 6211,
      "Ġkiss": 6212,
      "Ġsole": 6213,
      "ĠJu": 6214,
      "Ġpoison": 6215,
      "Ġinvestors": 6216,
      "Ġphil": 6217,
      "check": 6218,
      "Ġsolutions": 6219,
      "ĠQB": 6220,
      "Ġtranspar": 6221,
      "Ġlowest": 6222,
      "Ġdoub": 6223,
      "oooooooo": 6224,
      "ĠNEVER": 6225,
      "Ġsubstance": 6226,
      "Ġnarcissist": 6227,
      "ĠSomething": 6228,
      "Ġexercise": 6229,
      "Ġsuicide": 6230,
      "Ġcommercial": 6231,
      "bal": 6232,
      "cking": 6233,
      "gers": 6234,
      "mas": 6235,
      "Ġtiny": 6236,
      "Ġaward": 6237,
      "cha": 6238,
      "ĠPay": 6239,
      "Ġproduced": 6240,
      "ĠGDP": 6241,
      "ĠLets": 6242,
      "ĠFound": 6243,
      "agon": 6244,
      "Ġsurely": 6245,
      "aires": 6246,
      "Ġwarning": 6247,
      "Ġ196": 6248,
      "Ġlocation": 6249,
      "Ġhonor": 6250,
      "ĠCommission": 6251,
      "iverse": 6252,
      "Ġincompetence": 6253,
      "Ġcriticism": 6254,
      "Ġdeliver": 6255,
      "ĠRichard": 6256,
      "Ġfinger": 6257,
      "orida": 6258,
      "âĸ": 6259,
      "Ġtrib": 6260,
      "aning": 6261,
      "ara": 6262,
      "Ġinept": 6263,
      "ĠCB": 6264,
      "Ġhall": 6265,
      "rug": 6266,
      "Ġrant": 6267,
      "ĠMont": 6268,
      "Ġjur": 6269,
      "ĠNove": 6270,
      "ĠDC": 6271,
      "Ġvor": 6272,
      "abled": 6273,
      "ĠLand": 6274,
      "ĠYoung": 6275,
      ".........": 6276,
      "Ġunw": 6277,
      "Ġphr": 6278,
      "anny": 6279,
      "Ġ198": 6280,
      "Ġarguments": 6281,
      "ĠAdd": 6282,
      "Ġborders": 6283,
      "ĠTwitter": 6284,
      "Ġidentity": 6285,
      "Ġvillage": 6286,
      "PS": 6287,
      "hab": 6288,
      "Ġtoile": 6289,
      "Ġhol": 6290,
      "Ġinher": 6291,
      "ĠTot": 6292,
      "Ġwhites": 6293,
      "ĠFake": 6294,
      "Ġagreed": 6295,
      "berg": 6296,
      "ĠJews": 6297,
      "awn": 6298,
      "ection": 6299,
      "Ġ35": 6300,
      "Ġplays": 6301,
      "Ġleads": 6302,
      "Ġbadly": 6303,
      "Ġconfused": 6304,
      "Ġimmigrant": 6305,
      "Ġcitizenship": 6306,
      "Ġreference": 6307,
      "ĠPolice": 6308,
      "Ġarrested": 6309,
      "Ġdescribed": 6310,
      "ĠEVERY": 6311,
      "14": 6312,
      "tions": 6313,
      "there": 6314,
      "Ġreward": 6315,
      "Ġstream": 6316,
      "ĠSpr": 6317,
      "ĠSimp": 6318,
      "ateg": 6319,
      "ĠBack": 6320,
      "ĠDay": 6321,
      "Ġorange": 6322,
      "ĠLisa": 6323,
      "rian": 6324,
      "ĠFurther": 6325,
      "ooking": 6326,
      "apt": 6327,
      "Ġbrings": 6328,
      "Ġscreen": 6329,
      "Ġpointed": 6330,
      "Ġretired": 6331,
      "Ġmainstream": 6332,
      "ĠWithout": 6333,
      "Ġrepeat": 6334,
      "ĠChristians": 6335,
      "Ġlegitimate": 6336,
      "ĠDamn": 6337,
      "ĠMartin": 6338,
      "Ġdisease": 6339,
      "ĠSullivan": 6340,
      "90": 6341,
      "has": 6342,
      "ðĿ": 6343,
      "Ġbattle": 6344,
      "Ġpants": 6345,
      "iche": 6346,
      "Ġeating": 6347,
      "Ġheat": 6348,
      "olen": 6349,
      "Ġwasting": 6350,
      "Ġtrick": 6351,
      "Ġreporter": 6352,
      "Ġscary": 6353,
      "Ã¤h": 6354,
      "Ġtalks": 6355,
      "Ġwarm": 6356,
      "Ġminister": 6357,
      "Ġoppose": 6358,
      "Ġglass": 6359,
      "***": 6360,
      "Ġgenerations": 6361,
      "Ġera": 6362,
      "Ġfacing": 6363,
      "ĠDidn": 6364,
      "Ġexplan": 6365,
      "Ġprovinces": 6366,
      "Ġtroops": 6367,
      "He": 6368,
      "Ġfed": 6369,
      "Ġlady": 6370,
      "Ġnu": 6371,
      "ĠBest": 6372,
      "ĠRail": 6373,
      "ĠGold": 6374,
      "ĠUkrain": 6375,
      "Ġactive": 6376,
      "Ġacqu": 6377,
      "Ġgrabb": 6378,
      "Ġpermanent": 6379,
      "Ġreput": 6380,
      "Ġbelieved": 6381,
      "ĠJustice": 6382,
      "Ġchecks": 6383,
      "Ġ2014": 6384,
      "Ġconfir": 6385,
      "denker": 6386,
      "Weidel": 6387,
      "Alice": 6388,
      "ALLY": 6389,
      "ðŁ¤£": 6390,
      "ĠNovember": 6391,
      "boy": 6392,
      "cest": 6393,
      "dis": 6394,
      "ya": 6395,
      "ench": 6396,
      "icians": 6397,
      "Ġgrew": 6398,
      "Ġbegan": 6399,
      "aint": 6400,
      "ĠStar": 6401,
      "Ġremark": 6402,
      "Ġcourage": 6403,
      "ĠâĢĺ": 6404,
      "Ġcapable": 6405,
      "Ġmaintenance": 6406,
      "ĠPrime": 6407,
      "Ġorganizations": 6408,
      "Ġunfair": 6409,
      "Ġjournalism": 6410,
      "Ġdeduct": 6411,
      "Ġnaive": 6412,
      "fact": 6413,
      "nie": 6414,
      "yr": 6415,
      "Ġ!!": 6416,
      "onies": 6417,
      "ita": 6418,
      "icable": 6419,
      "stood": 6420,
      "Ġlib": 6421,
      "Ġsees": 6422,
      "earing": 6423,
      "udes": 6424,
      "Ġkidding": 6425,
      "Ġnorm": 6426,
      "Ġacceptable": 6427,
      "Ġreduction": 6428,
      "ĠParis": 6429,
      "Ġeliminate": 6430,
      "ĠLegislature": 6431,
      "CC": 6432,
      "MG": 6433,
      "craft": 6434,
      "kn": 6435,
      "put": 6436,
      "reitschuster": 6437,
      "Ġsending": 6438,
      "isher": 6439,
      "Ġreli": 6440,
      "orting": 6441,
      "Ġcanada": 6442,
      "unction": 6443,
      "Ġusa": 6444,
      "Ġadjust": 6445,
      "ressive": 6446,
      "ĠCharl": 6447,
      "Ġposters": 6448,
      "Ġschon": 6449,
      "Ġabsurd": 6450,
      "Ġlegislative": 6451,
      "Ġhumanity": 6452,
      "Ġairport": 6453,
      "Ġaccepted": 6454,
      "Ġsenior": 6455,
      "Ġflying": 6456,
      "Ġurban": 6457,
      "Ġsatisf": 6458,
      "Ġproposal": 6459,
      "ĠAustralia": 6460,
      "Ġbubble": 6461,
      "len": 6462,
      "ua": 6463,
      "Ġfile": 6464,
      "Ġanger": 6465,
      "Ġnumerous": 6466,
      "ĠIF": 6467,
      "Ġyouth": 6468,
      "owed": 6469,
      "aces": 6470,
      "ĠDick": 6471,
      "Ġchamp": 6472,
      "Ġpayment": 6473,
      "Ġattacking": 6474,
      "Ġflight": 6475,
      "Ã¤n": 6476,
      "Ġfollowers": 6477,
      "Ġfairly": 6478,
      "ĠSteve": 6479,
      "This": 6480,
      "Ġlifest": 6481,
      "Ġdetermined": 6482,
      "Ġhistorical": 6483,
      "%,": 6484,
      "99": 6485,
      "itals": 6486,
      "Ġmuslim": 6487,
      "Ġdying": 6488,
      "Ġloy": 6489,
      "ston": 6490,
      "ĠHypocr": 6491,
      "ĠRiver": 6492,
      "berty": 6493,
      "agers": 6494,
      "ishops": 6495,
      "Ġcrack": 6496,
      "Ġflaw": 6497,
      "onym": 6498,
      "Ġmistakes": 6499,
      "ĠSTUPID": 6500,
      "Ġdictator": 6501,
      "Ġappointed": 6502,
      "ĠMorneau": 6503,
      "Ġassistance": 6504,
      "55": 6505,
      "hy": 6506,
      "sight": 6507,
      "Ġportion": 6508,
      "asure": 6509,
      "Ġquarter": 6510,
      "Ġpayers": 6511,
      "Ġscandal": 6512,
      "Ġsucceed": 6513,
      "appy": 6514,
      "EST": 6515,
      "Ġcorporation": 6516,
      "Ġfaces": 6517,
      "Ġpulled": 6518,
      "Ġcarrying": 6519,
      "Ġgirls": 6520,
      "ophobic": 6521,
      "Ġtitle": 6522,
      "Ġspirit": 6523,
      "Ġimbecile": 6524,
      "No": 6525,
      "pret": 6526,
      "uations": 6527,
      "vis": 6528,
      "Ġwenn": 6529,
      "atures": 6530,
      "Ġdin": 6531,
      "Ġthru": 6532,
      "aders": 6533,
      "Ġforth": 6534,
      "etime": 6535,
      "acle": 6536,
      "utor": 6537,
      "ĠSche": 6538,
      "Ġrising": 6539,
      "ils": 6540,
      "ĠPet": 6541,
      "riend": 6542,
      "ĠJack": 6543,
      "ildren": 6544,
      "Ġfloor": 6545,
      "Ġregion": 6546,
      "ĠReal": 6547,
      "arma": 6548,
      "Ġfoundation": 6549,
      "Ġconstant": 6550,
      "Ġsoldiers": 6551,
      "Ġpicked": 6552,
      "Ġcontracts": 6553,
      "offs": 6554,
      "Ġjudgement": 6555,
      "Ġhonestly": 6556,
      "Ġmeasures": 6557,
      "Ġmirror": 6558,
      "ĠOkay": 6559,
      "Ġcoffee": 6560,
      "Ġcompassion": 6561,
      "ĠAfghanistan": 6562,
      "ĠCEO": 6563,
      "afe": 6564,
      "ios": 6565,
      "inter": 6566,
      "Ġfaster": 6567,
      "Ġho": 6568,
      "ĠBer": 6569,
      "isters": 6570,
      "andering": 6571,
      "Ġoverwhel": 6572,
      "necess": 6573,
      "Ġgotta": 6574,
      "ixon": 6575,
      "Ġloves": 6576,
      "Ġattempting": 6577,
      "Ġbigotry": 6578,
      "ĠPretty": 6579,
      "ðĿĴ": 6580,
      "gic": 6581,
      "Ġtill": 6582,
      "rection": 6583,
      "Ġheavy": 6584,
      "Ġriver": 6585,
      "Ġsein": 6586,
      "ĠRoy": 6587,
      "ansion": 6588,
      "ailed": 6589,
      "Ġremote": 6590,
      "luded": 6591,
      "Ġhaters": 6592,
      "Ġrecords": 6593,
      "ĠFlorida": 6594,
      "Ġtransportation": 6595,
      "Ġchemical": 6596,
      "ĠVietn": 6597,
      "Ġought": 6598,
      "Ġbast": 6599,
      "Ġcert": 6600,
      "esc": 6601,
      "Ġlinks": 6602,
      "ĠTalk": 6603,
      "amily": 6604,
      "ĠHad": 6605,
      "Ġriot": 6606,
      "Ġneo": 6607,
      "ifa": 6608,
      "essed": 6609,
      "ĠRyan": 6610,
      "ĠGM": 6611,
      "osh": 6612,
      "eling": 6613,
      "Ġunp": 6614,
      "Ġtaxed": 6615,
      "Ġrude": 6616,
      "ĠChump": 6617,
      "Ġbigots": 6618,
      "Ġ500": 6619,
      "Ġpasseng": 6620,
      "Ġriding": 6621,
      "Ġcommunist": 6622,
      "Ġtransit": 6623,
      "Ġerr": 6624,
      "Ġexcuses": 6625,
      "Ġspecies": 6626,
      "Ġsooner": 6627,
      "Ġsurprising": 6628,
      "Ġmoronic": 6629,
      "Ġexistence": 6630,
      "Ġconsumers": 6631,
      "IP": 6632,
      "fen": 6633,
      "greg": 6634,
      "iens": 6635,
      "itarian": 6636,
      "Ġpile": 6637,
      "Ġfresh": 6638,
      "Ġoder": 6639,
      "Ġego": 6640,
      "olve": 6641,
      "ĠHall": 6642,
      "ĠBay": 6643,
      "Ġabus": 6644,
      "ieve": 6645,
      "ĠLove": 6646,
      "Ġdonations": 6647,
      "Ġclar": 6648,
      "ĠIns": 6649,
      "Ġdecre": 6650,
      "Ġinsist": 6651,
      "Ġlesson": 6652,
      "Ġcontinuing": 6653,
      "Ġ2018": 6654,
      "Ġexperts": 6655,
      "Ġmarriage": 6656,
      "Ġlargely": 6657,
      "Ġweekend": 6658,
      "ĠNeither": 6659,
      "Ġfavorite": 6660,
      "Ġaffected": 6661,
      "ĠUnder": 6662,
      "04": 6663,
      "swe": 6664,
      "Ġpowers": 6665,
      "Ġdann": 6666,
      "ĠSay": 6667,
      "ĠPot": 6668,
      "ĠNations": 6669,
      "ĠUH": 6670,
      "Ġteen": 6671,
      "ĠVote": 6672,
      "azon": 6673,
      "stitute": 6674,
      "ĠSeattle": 6675,
      "ĠAgree": 6676,
      "Ġburning": 6677,
      "Ġopportunities": 6678,
      "Ġmandate": 6679,
      "Ġpockets": 6680,
      "article": 6681,
      "Ġbehaviour": 6682,
      "fund": 6683,
      "ux": 6684,
      "Ġaid": 6685,
      "Ġsession": 6686,
      "erdenker": 6687,
      "Ġbow": 6688,
      "Ġbanned": 6689,
      "oros": 6690,
      "Ġthugs": 6691,
      "arks": 6692,
      "Ġlane": 6693,
      "ĠWonder": 6694,
      "Ġdod": 6695,
      "ĠBel": 6696,
      "ĠNet": 6697,
      "cipl": 6698,
      "Ġsched": 6699,
      "Ġdecline": 6700,
      "coming": 6701,
      "Ġparks": 6702,
      "ERE": 6703,
      "urric": 6704,
      "Ġphony": 6705,
      "Ġ2019": 6706,
      "Ġdiscl": 6707,
      "white": 6708,
      "ĠIndeed": 6709,
      "Ġfigured": 6710,
      "Ġpigs": 6711,
      "Ġmanufacturing": 6712,
      "Ġestablishment": 6713,
      "ollywood": 6714,
      "23": 6715,
      "may": 6716,
      "pass": 6717,
      "rous": 6718,
      "ato": 6719,
      "Ġbod": 6720,
      "Ġcateg": 6721,
      "Ġhiding": 6722,
      "icious": 6723,
      "ĠTur": 6724,
      "ented": 6725,
      "Ġitems": 6726,
      "ĠCIA": 6727,
      "olt": 6728,
      "ĠHome": 6729,
      "Ġju": 6730,
      "ĠPope": 6731,
      "ĠRel": 6732,
      "Ġexam": 6733,
      "unge": 6734,
      "ĠJones": 6735,
      "Ġfeelings": 6736,
      "Ġboom": 6737,
      "Ġdumbest": 6738,
      "Ġemissions": 6739,
      "Ġbullshit": 6740,
      "Ġembr": 6741,
      "Ġpractices": 6742,
      "Ġbigoted": 6743,
      "Ġdeficits": 6744,
      "Ġjournalists": 6745,
      "ĠPhil": 6746,
      "Ġstrike": 6747,
      "ĠONE": 6748,
      "Ġgreedy": 6749,
      "ĠEspecially": 6750,
      "ĠClearly": 6751,
      "Ġfantasy": 6752,
      "Ġdeleted": 6753,
      "EL": 6754,
      "eous": 6755,
      "Ġbuck": 6756,
      "Ġtoxic": 6757,
      "ĠAT": 6758,
      "Ġhabit": 6759,
      "ĠHil": 6760,
      "istory": 6761,
      "Ġnose": 6762,
      "agger": 6763,
      "Ġtaxation": 6764,
      "Ġwrites": 6765,
      "encing": 6766,
      "Ġplanned": 6767,
      "Ġminded": 6768,
      "chet": 6769,
      "Ġcorrectly": 6770,
      "Ġpieces": 6771,
      "ĠGlad": 6772,
      "Ġunfortunately": 6773,
      "Ġrental": 6774,
      "ĠDoesn": 6775,
      "ĠRights": 6776,
      "Ġcombined": 6777,
      "Ġacknowledge": 6778,
      "Ġrepeatedly": 6779,
      "Ġunemployment": 6780,
      "ĠWrong": 6781,
      "Ġcannabis": 6782,
      "08": 6783,
      "ih": 6784,
      "water": 6785,
      "Ġtree": 6786,
      "inct": 6787,
      "Ġbound": 6788,
      "Ġdry": 6789,
      "Ġhung": 6790,
      "stupid": 6791,
      "ĠAc": 6792,
      "rol": 6793,
      "rud": 6794,
      "Ġrough": 6795,
      "Ġseven": 6796,
      "Ġsumm": 6797,
      "Ġallies": 6798,
      "Ġsoll": 6799,
      "Ġchair": 6800,
      "ĠEmp": 6801,
      "izz": 6802,
      "ogs": 6803,
      "lessly": 6804,
      "Ġobama": 6805,
      "Ġkinds": 6806,
      "Ġequip": 6807,
      "ĠConf": 6808,
      "Ġanswers": 6809,
      "Ġvari": 6810,
      "Ġinstitution": 6811,
      "Ġsacr": 6812,
      "24": 6813,
      "based": 6814,
      "Ġameric": 6815,
      "Ġcake": 6816,
      "aling": 6817,
      "road": 6818,
      "olved": 6819,
      "ĠHaving": 6820,
      "Ġjer": 6821,
      "ĠGET": 6822,
      "agine": 6823,
      "Ġprime": 6824,
      "Ġseeking": 6825,
      "Ġruling": 6826,
      "Ġbrief": 6827,
      "Ġtraged": 6828,
      "plus": 6829,
      "Ġ197": 6830,
      "ĠMedia": 6831,
      "Ġraped": 6832,
      "Ġactivities": 6833,
      "ĠIslamic": 6834,
      "believ": 6835,
      "Ġconnection": 6836,
      "Ġcalc": 6837,
      "Ġconclusion": 6838,
      "ĠSecretary": 6839,
      "ĠStephen": 6840,
      "06": 6841,
      "don": 6842,
      "mail": 6843,
      "oz": 6844,
      "some": 6845,
      "xist": 6846,
      "your": 6847,
      "Ġcats": 6848,
      "Ġhiring": 6849,
      "Ġthie": 6850,
      "ica": 6851,
      "ota": 6852,
      "ette": 6853,
      "achen": 6854,
      "ĠWatch": 6855,
      "ĠBes": 6856,
      "Ġvile": 6857,
      "Ġwhatso": 6858,
      "eary": 6859,
      "ĠEV": 6860,
      "ĠChin": 6861,
      "Ġspect": 6862,
      "arsh": 6863,
      "Ġhopefully": 6864,
      "Ġbuyers": 6865,
      "Ġhousehold": 6866,
      "Ġregulation": 6867,
      "Ġmemory": 6868,
      "Ġballs": 6869,
      "ĠSyrian": 6870,
      "ĠĠĠĠĠĠĠĠĠĠĠĠĠĠĠĠ": 6871,
      "Ġaccomplished": 6872,
      "Ġprivilege": 6873,
      "Ġemergency": 6874,
      "Ġfundamental": 6875,
      "ĠÃ¼ber": 6876,
      "ĠFlynn": 6877,
      "Ġwhatsoever": 6878,
      "election": 6879,
      "Ġ<": 6880,
      "Ġske": 6881,
      "Ġwir": 6882,
      "Ġbath": 6883,
      "ano": 6884,
      "ashed": 6885,
      "Ġyard": 6886,
      "oting": 6887,
      "Ġele": 6888,
      "Ġstructure": 6889,
      "ĠCR": 6890,
      "Ġrally": 6891,
      "ĠMail": 6892,
      "Ġalle": 6893,
      "abe": 6894,
      "rip": 6895,
      "Ġchosen": 6896,
      "qual": 6897,
      "Ġuninformed": 6898,
      "âĢĶ": 6899,
      "obs": 6900,
      "ensions": 6901,
      "Ġrealized": 6902,
      "Ġsmarter": 6903,
      "Ġsymb": 6904,
      "Ġclasses": 6905,
      "Ġbuddy": 6906,
      "Ġcredible": 6907,
      "Ġthreatening": 6908,
      "Ġlabour": 6909,
      "Ġsenate": 6910,
      "Ġcurious": 6911,
      "Ġtweets": 6912,
      "Ġbelongs": 6913,
      "Ġinev": 6914,
      "Ġguarantee": 6915,
      "66": 6916,
      ">>": 6917,
      "TER": 6918,
      "vo": 6919,
      "Ġtun": 6920,
      "Ġsong": 6921,
      "anity": 6922,
      "Ġdumber": 6923,
      "Ġhates": 6924,
      "ĠCON": 6925,
      "ĠHy": 6926,
      "Ġaspect": 6927,
      "ĠMass": 6928,
      "Ġ\"...": 6929,
      "ĠOld": 6930,
      "ĠLol": 6931,
      "ĠFA": 6932,
      "Ġouts": 6933,
      "Ġ---": 6934,
      "Ġunnecess": 6935,
      "Ġbelieving": 6936,
      "Ġzone": 6937,
      "Ġcrew": 6938,
      "idden": 6939,
      "Ġexception": 6940,
      "fficient": 6941,
      "Ġoperations": 6942,
      "What": 6943,
      "Ġstealing": 6944,
      "Ġfemale": 6945,
      "Ġdelay": 6946,
      "Ġsuddenly": 6947,
      "ĠFacebook": 6948,
      "Ġirresponsible": 6949,
      "Ġexplanation": 6950,
      "bart": 6951,
      "banks": 6952,
      "Ġtank": 6953,
      "ania": 6954,
      "Ġfishing": 6955,
      "Ġhunt": 6956,
      "ĠIgn": 6957,
      "Ġsem": 6958,
      "Ġmehr": 6959,
      "asters": 6960,
      "ĠJunior": 6961,
      "Ġcompare": 6962,
      "Ġrub": 6963,
      "Ġwrit": 6964,
      "ĠButts": 6965,
      "Ġextent": 6966,
      "Ġeducate": 6967,
      "Ġlawsuit": 6968,
      "Ġpollution": 6969,
      "ĠAmazon": 6970,
      "ACA": 6971,
      "Ġrevenues": 6972,
      "ahahahah": 6973,
      "Ġcopy": 6974,
      "Ġocean": 6975,
      "33": 6976,
      "look": 6977,
      "Ġbat": 6978,
      "Ġbot": 6979,
      "Ġbucks": 6980,
      "Ġhilarious": 6981,
      "ĠTed": 6982,
      "leading": 6983,
      "ĠWel": 6984,
      "Ġnoted": 6985,
      "Ġrif": 6986,
      "orthern": 6987,
      "Ġusers": 6988,
      "agen": 6989,
      "igned": 6990,
      "ĠKa": 6991,
      "reek": 6992,
      "Ġtrig": 6993,
      "Ġtrained": 6994,
      "def": 6995,
      "egen": 6996,
      "ieren": 6997,
      "Ġstrange": 6998,
      "ĠProblem": 6999,
      "ĠExcept": 7000,
      "Ġstatistics": 7001,
      "ITH": 7002,
      "Ġlifetime": 7003,
      "Ġhunting": 7004,
      "Ġmurdered": 7005,
      "Ġvirtually": 7006,
      "ĠMenschen": 7007,
      "ĠNATO": 7008,
      "nes": 7009,
      "will": 7010,
      "Ġtheft": 7011,
      "Ġbait": 7012,
      "ingly": 7013,
      "Ġdress": 7014,
      "icated": 7015,
      "Ġgift": 7016,
      "left": 7017,
      "ĠAlex": 7018,
      "ĠCub": 7019,
      "ĠWil": 7020,
      "Ġnotion": 7021,
      "Ġweird": 7022,
      "cel": 7023,
      "Ġsharing": 7024,
      "ĠLock": 7025,
      "ĠEX": 7026,
      "ĠUh": 7027,
      "Ġcomprehens": 7028,
      "Ġ22": 7029,
      "Ġnowhere": 7030,
      "order": 7031,
      "ervation": 7032,
      "ĠValley": 7033,
      "Ġregards": 7034,
      "Ġkiller": 7035,
      "Ġracial": 7036,
      "Ġstopping": 7037,
      "Ġ,,": 7038,
      "Ġconcent": 7039,
      "Ġmaint": 7040,
      "Ġindustrial": 7041,
      "Ġmentality": 7042,
      "ĠIndia": 7043,
      "Ġneighbour": 7044,
      "anese": 7045,
      "Ġassociated": 7046,
      "Ġoccurred": 7047,
      "Ġrelatively": 7048,
      "ĠMerkel": 7049,
      "Ġmunicip": 7050,
      "ĠLeafs": 7051,
      "LI": 7052,
      "bar": 7053,
      "green": 7054,
      "Ġ........": 7055,
      "oning": 7056,
      "Ġsoul": 7057,
      "Ġdime": 7058,
      "Ġlunch": 7059,
      "omes": 7060,
      "ĠImm": 7061,
      "Ġongoing": 7062,
      "Ġforcing": 7063,
      "ĠHoly": 7064,
      "ĠMust": 7065,
      "Ġknee": 7066,
      "Ġoverse": 7067,
      "Ġgull": 7068,
      "Ġaccomm": 7069,
      "Ġflow": 7070,
      "Ġmonop": 7071,
      "Ġinterpret": 7072,
      "Ġfails": 7073,
      "Ġcreep": 7074,
      "Ġconfront": 7075,
      "Ġintoler": 7076,
      "Ġsalmon": 7077,
      "Ġmiser": 7078,
      "ĠZuma": 7079,
      "Ġreturned": 7080,
      "Ġoperate": 7081,
      "ĠQuerdenker": 7082,
      "Ġmotor": 7083,
      "Ġpipelines": 7084,
      "Ġarrogance": 7085,
      "Ġkicked": 7086,
      "Ġapologize": 7087,
      "Ġsupremacists": 7088,
      "ĠJanuary": 7089,
      "ĠAbsolutely": 7090,
      "Ġequipment": 7091,
      "Ġaccommod": 7092,
      "cor": 7093,
      "ea": 7094,
      "ev": 7095,
      "een": 7096,
      "even": 7097,
      "kt": 7098,
      "aters": 7099,
      "aly": 7100,
      "Ġrely": 7101,
      "Ġforg": 7102,
      "ĠCrum": 7103,
      "ĠMat": 7104,
      "ĠBu": 7105,
      "ĠBillion": 7106,
      "Ġsel": 7107,
      "antic": 7108,
      "ĠRG": 7109,
      "ĠGard": 7110,
      "Ġleague": 7111,
      "ĠLots": 7112,
      "peace": 7113,
      "ĠUP": 7114,
      "ĠJose": 7115,
      "ĠKl": 7116,
      "Ġenfor": 7117,
      "Ġapplies": 7118,
      "ieder": 7119,
      "Ġglobe": 7120,
      "Ġpossibility": 7121,
      "ĠExcellent": 7122,
      "Ġestim": 7123,
      "Ġattempted": 7124,
      "Ġcompete": 7125,
      "Ġinsults": 7126,
      "ĠSuper": 7127,
      "Ġpushed": 7128,
      "ĠRobert": 7129,
      "Ġenemies": 7130,
      "Ġultimately": 7131,
      "ĠSometimes": 7132,
      "ĠCatholic": 7133,
      "ĠMichael": 7134,
      "onnell": 7135,
      "Ġreducing": 7136,
      "Ġphilos": 7137,
      "ðŁ¤£ðŁ¤£": 7138,
      "Ġlifestyle": 7139,
      "OB": 7140,
      "bo": 7141,
      "civil": 7142,
      "ses": 7143,
      "Ġtu": 7144,
      "Ġtask": 7145,
      "Ġwa": 7146,
      "ĠBra": 7147,
      "ĠDire": 7148,
      "auc": 7149,
      "oster": 7150,
      "ĠFire": 7151,
      "aken": 7152,
      "Ġcommenting": 7153,
      "ibt": 7154,
      "Ġdefined": 7155,
      "Ġplaced": 7156,
      "Ġpresented": 7157,
      "ronic": 7158,
      "Ġpetty": 7159,
      "ĠAssad": 7160,
      "Ġdictators": 7161,
      "ĠImagine": 7162,
      "oil": 7163,
      "overy": 7164,
      "pd": 7165,
      "Ġom": 7166,
      "Ġtomor": 7167,
      "Ġdim": 7168,
      "Ġdiversity": 7169,
      "ĠSupp": 7170,
      "ĠCD": 7171,
      "ĠBud": 7172,
      "ĠPlus": 7173,
      "ĠDoug": 7174,
      "Ġshares": 7175,
      "Ġsomewhat": 7176,
      "Ġmanager": 7177,
      "ĠJr": 7178,
      "Ġunits": 7179,
      "orship": 7180,
      "Ġreporters": 7181,
      "ĠNOTHING": 7182,
      "Ġcentral": 7183,
      "Ġinvestigations": 7184,
      "ĠGlobal": 7185,
      "Ġoperating": 7186,
      "Ġ2008": 7187,
      "Ġaddressed": 7188,
      "Ġcowardly": 7189,
      "Ġpictures": 7190,
      "Ġscreaming": 7191,
      "Ġpremiums": 7192,
      "Ġfilthy": 7193,
      "Ġcircumstances": 7194,
      "Leary": 7195,
      "PP": 7196,
      "iÃŁ": 7197,
      "xy": 7198,
      "Ġsarc": 7199,
      "orary": 7200,
      "itudes": 7201,
      "ental": 7202,
      "Ġstolen": 7203,
      "ĠWal": 7204,
      "ĠHART": 7205,
      "uries": 7206,
      "Ġdece": 7207,
      "ĠNixon": 7208,
      "ulating": 7209,
      "acked": 7210,
      "Ġclub": 7211,
      "Ġcrash": 7212,
      "Ġreck": 7213,
      "Ġletters": 7214,
      "Ġtermin": 7215,
      "Ġhighway": 7216,
      "lude": 7217,
      "Ġopening": 7218,
      "Ġmainland": 7219,
      "Ġworthy": 7220,
      "Ġvictory": 7221,
      "Ġeinen": 7222,
      "Ġconvin": 7223,
      "Ġdespicable": 7224,
      "ĠONLY": 7225,
      "Ġsweet": 7226,
      "ĠLynch": 7227,
      "ĠThomas": 7228,
      "iate": 7229,
      "iary": 7230,
      "Ġties": 7231,
      "Ġbon": 7232,
      "Ġbog": 7233,
      "Ġpussy": 7234,
      "Ġdirt": 7235,
      "Ġforms": 7236,
      "ige": 7237,
      "ros": 7238,
      "Ġstating": 7239,
      "ĠSar": 7240,
      "ctr": 7241,
      "ĠBur": 7242,
      "ĠOahu": 7243,
      "ĠLA": 7244,
      "agn": 7245,
      "Ġtrading": 7246,
      "Ġdeflect": 7247,
      "Ġihr": 7248,
      "Ġsecure": 7249,
      "Ġcontrols": 7250,
      "ĠEverything": 7251,
      "Ġattempts": 7252,
      "Ġfaced": 7253,
      "Ġsubsc": 7254,
      "Ġcowards": 7255,
      "Ġrapist": 7256,
      "Ġmovies": 7257,
      "Ġrequirements": 7258,
      "Ġrefugee": 7259,
      "Ġcycle": 7260,
      "Ġsupremacist": 7261,
      "ĠIdiots": 7262,
      "Ġcivility": 7263,
      "Ġscenario": 7264,
      "ĠFoundation": 7265,
      "95": 7266,
      "from": 7267,
      "iam": 7268,
      "Ġsight": 7269,
      "Ġwave": 7270,
      "Ġbatter": 7271,
      "Ġcook": 7272,
      "arry": 7273,
      "Ġlocked": 7274,
      "icer": 7275,
      "aschet": 7276,
      "lder": 7277,
      "Ġheav": 7278,
      "ĠSu": 7279,
      "ĠHRC": 7280,
      "ĠMiss": 7281,
      "ĠPen": 7282,
      "Ġwashed": 7283,
      "ĠDear": 7284,
      "ĠRid": 7285,
      "ĠFore": 7286,
      "ĠEnd": 7287,
      "Ġkne": 7288,
      "Ġincap": 7289,
      "Ġscared": 7290,
      "Ġcommentary": 7291,
      "Ġrecru": 7292,
      "Ġelit": 7293,
      "Ġadding": 7294,
      "mbly": 7295,
      "ashion": 7296,
      "Ġadvance": 7297,
      "Ġ99": 7298,
      "ĠProf": 7299,
      "Ġeffectively": 7300,
      "Ġfacilities": 7301,
      "Ġfigures": 7302,
      "Ġchecked": 7303,
      "Ġcompetitive": 7304,
      "utsch": 7305,
      "Ġdocuments": 7306,
      "UCK": 7307,
      "Ġpunishment": 7308,
      "hard": 7309,
      "mind": 7310,
      "Ġil": 7311,
      "ini": 7312,
      "Ġdarn": 7313,
      "adium": 7314,
      "uration": 7315,
      "Ġdeleg": 7316,
      "Ġvision": 7317,
      "ĠRic": 7318,
      "ĠLittle": 7319,
      "ĠUt": 7320,
      "Ġprev": 7321,
      "Ġrecession": 7322,
      "Ġindigenous": 7323,
      "Ġfinance": 7324,
      "Ġpatients": 7325,
      "ortunate": 7326,
      "Ġopenly": 7327,
      "Ġprotesters": 7328,
      "ĠAdminist": 7329,
      "ACT": 7330,
      "Ġcruel": 7331,
      "Ġcriticize": 7332,
      "ĠWhether": 7333,
      "Ġtoilet": 7334,
      "RI": 7335,
      "Ġ~": 7336,
      "iser": 7337,
      "Ġfiring": 7338,
      "Ġmile": 7339,
      "Ġlad": 7340,
      "Ġlap": 7341,
      "Ġrein": 7342,
      "acing": 7343,
      "ĠAB": 7344,
      "outhern": 7345,
      "Ġweb": 7346,
      "ĠBomb": 7347,
      "Ġgoals": 7348,
      "ĠDu": 7349,
      "Ġprob": 7350,
      "ula": 7351,
      "Ġyourselves": 7352,
      "ardier": 7353,
      "Ġunique": 7354,
      "Ġmyth": 7355,
      "Ġguard": 7356,
      "Ġcareful": 7357,
      "Ġ300": 7358,
      "comm": 7359,
      "Ġseemed": 7360,
      "Ġdrivel": 7361,
      "ounce": 7362,
      "Ġapprove": 7363,
      "Ġprotests": 7364,
      "ĠAgreed": 7365,
      "Ġlogical": 7366,
      "Ġrapid": 7367,
      "Ġinsulting": 7368,
      "ĠEnough": 7369,
      "Ġjournalist": 7370,
      "Ġdeliber": 7371,
      "Ġconstituents": 7372,
      "ĠUkraine": 7373,
      "Ġtomorrow": 7374,
      "chers": 7375,
      "fake": 7376,
      "rr": 7377,
      "tru": 7378,
      "war": 7379,
      "Ġcod": 7380,
      "Ġmaster": 7381,
      "ĠCra": 7382,
      "ĠDP": 7383,
      "ourse": 7384,
      "ĠOR": 7385,
      "ĠOUR": 7386,
      "Ġexchange": 7387,
      "ffect": 7388,
      "Ġovert": 7389,
      "Ġfactors": 7390,
      "Ġtext": 7391,
      "asket": 7392,
      "Ġending": 7393,
      "Ġ45": 7394,
      "Ġsurvey": 7395,
      "Ġillness": 7396,
      "Ġpulling": 7397,
      "Ġethnic": 7398,
      "ILLION": 7399,
      "Ġpedest": 7400,
      "Ġcondemn": 7401,
      "etzt": 7402,
      "Ġtragedy": 7403,
      "27": 7404,
      "48": 7405,
      "AK": 7406,
      "WN": 7407,
      "aj": 7408,
      "iac": 7409,
      "health": 7410,
      "eration": 7411,
      "isch": 7412,
      "inge": 7413,
      "Ġanthem": 7414,
      "Ġthief": 7415,
      "ĠIQ": 7416,
      "Ġgather": 7417,
      "lets": 7418,
      "Ġstocks": 7419,
      "ĠCall": 7420,
      "ĠCarl": 7421,
      "Ġwithd": 7422,
      "Ġlibr": 7423,
      "ĠMul": 7424,
      "ĠMuch": 7425,
      "ĠBull": 7426,
      "Ġjury": 7427,
      "Ġproved": 7428,
      "Ġconce": 7429,
      "ĠRec": 7430,
      "ĠFord": 7431,
      "Ġupd": 7432,
      "Ġunderstood": 7433,
      "Ġexpansion": 7434,
      "ĠShow": 7435,
      "Ġdepart": 7436,
      "Ġdirector": 7437,
      "Ġapology": 7438,
      "Ġpresc": 7439,
      "ĠProt": 7440,
      "Ġlights": 7441,
      "Ġcontribution": 7442,
      "ĠMexican": 7443,
      "Ġfriendly": 7444,
      "ĠWHAT": 7445,
      "ĠðŁ¤": 7446,
      "Ġidentify": 7447,
      "Ġsignificantly": 7448,
      "ĠPalin": 7449,
      "ĠCollege": 7450,
      "Ġconvinced": 7451,
      "47": 7452,
      "iance": 7453,
      "met": 7454,
      "Ġtied": 7455,
      "ĠIll": 7456,
      "illa": 7457,
      "Ġliked": 7458,
      "ĠME": 7459,
      "ĠMot": 7460,
      "ĠMORE": 7461,
      "ĠNRA": 7462,
      "ĠDA": 7463,
      "andom": 7464,
      "rive": 7465,
      "Ġuser": 7466,
      "Ġeveryday": 7467,
      "Ġexplo": 7468,
      "Ġdemands": 7469,
      "mann": 7470,
      "Ġreasoning": 7471,
      "Ġemployed": 7472,
      "Ġsexually": 7473,
      "OULD": 7474,
      "Ġaircraft": 7475,
      "Ġdevelopers": 7476,
      "Ġdrag": 7477,
      "Ġcrooked": 7478,
      "Ġpublish": 7479,
      "ĠAfrican": 7480,
      "Ġtraditional": 7481,
      "elected": 7482,
      "ĠVietnam": 7483,
      "MA": 7484,
      "iors": 7485,
      "nger": 7486,
      "range": 7487,
      "¸ı": 7488,
      "ï¸ı": 7489,
      "Ġbishops": 7490,
      "Ġpu": 7491,
      "Ġow": 7492,
      "Ġlaid": 7493,
      "Ġstood": 7494,
      "ĠSund": 7495,
      "ĠWOR": 7496,
      "chan": 7497,
      "ĠMad": 7498,
      "Ġabused": 7499,
      "Ġchicken": 7500,
      "Ġnoise": 7501,
      "ĠStart": 7502,
      "ĠAlthough": 7503,
      "Ġcarefully": 7504,
      "Ġ48": 7505,
      "Ġwinner": 7506,
      "Ġemployers": 7507,
      "Ġdamned": 7508,
      "Ġconfidence": 7509,
      "Ġconfirm": 7510,
      "Ġtalked": 7511,
      "Ġtypically": 7512,
      "Ġhorr": 7513,
      "Ġsilence": 7514,
      "ĠOtherwise": 7515,
      "Ġadvocate": 7516,
      "Ġinstitutions": 7517,
      "Ġentertainment": 7518,
      "ĠFairbanks": 7519,
      "ĠMiller": 7520,
      "Ġaccusations": 7521,
      "Ġacademic": 7522,
      "Ġoverwhelming": 7523,
      "Ġincapable": 7524,
      "LA": 7525,
      "Re": 7526,
      "bag": 7527,
      "ders": 7528,
      "iently": 7529,
      "yes": 7530,
      "heit": 7531,
      "rey": 7532,
      "Ġcas": 7533,
      "Ġgays": 7534,
      "ĠWITH": 7535,
      "Ġric": 7536,
      "ĠBad": 7537,
      "ĠLead": 7538,
      "Ġagent": 7539,
      "ĠKenn": 7540,
      "ĠWere": 7541,
      "Ġflo": 7542,
      "Ġpasses": 7543,
      "Ġinvestigate": 7544,
      "Ġfilm": 7545,
      "Ġlosses": 7546,
      "Ġobjective": 7547,
      "Ġtourists": 7548,
      "Ġuncivil": 7549,
      "Ġprosper": 7550,
      "Ġrestaurant": 7551,
      "Ġblatant": 7552,
      "aan": 7553,
      "ga": 7554,
      "ko": 7555,
      "lor": 7556,
      "sen": 7557,
      "Ġdick": 7558,
      "eding": 7559,
      "ANS": 7560,
      "alo": 7561,
      "Ġstations": 7562,
      "Ġhen": 7563,
      "Ġdoch": 7564,
      "urt": 7565,
      "ĠBus": 7566,
      "ĠPeter": 7567,
      "Ġsue": 7568,
      "ĠRog": 7569,
      "Ġcha": 7570,
      "ĠEN": 7571,
      "aret": 7572,
      "Ġdisabled": 7573,
      "intons": 7574,
      "ĠAlways": 7575,
      "ictions": 7576,
      "Ġroot": 7577,
      "egal": 7578,
      "Ġeducational": 7579,
      "Ġopened": 7580,
      "Ġthreatened": 7581,
      "ĠScott": 7582,
      "Ġwalked": 7583,
      "Ġlunatics": 7584,
      "Ġsanct": 7585,
      "Ġcompensation": 7586,
      "uerto": 7587,
      "Ġcomplicated": 7588,
      "Ġheavily": 7589,
      "ford": 7590,
      "yst": 7591,
      "reens": 7592,
      "oned": 7593,
      "Ġduck": 7594,
      "Ġthro": 7595,
      "oms": 7596,
      "ĠIr": 7597,
      "ĠHollywood": 7598,
      "Ġproced": 7599,
      "aby": 7600,
      "about": 7601,
      "ĠFool": 7602,
      "Ġdiscipl": 7603,
      "Ġspons": 7604,
      "Ġentering": 7605,
      "Ġretail": 7606,
      "Ġinvestments": 7607,
      "Ġviable": 7608,
      "Ġviolation": 7609,
      "Ġsucking": 7610,
      "ĠBefore": 7611,
      "ĠGrow": 7612,
      "Ġauto": 7613,
      "ĠMcConnell": 7614,
      "ĠCountry": 7615,
      "Ġpriority": 7616,
      "Ġunlikely": 7617,
      "Ġconsistent": 7618,
      "ĠJudge": 7619,
      "Ġdefeat": 7620,
      "ĠJuly": 7621,
      "Ġreputation": 7622,
      "Ġjerks": 7623,
      "Ġunnecessary": 7624,
      "jan": 7625,
      "mans": 7626,
      "uu": 7627,
      "reck": 7628,
      "inging": 7629,
      "Ġmerc": 7630,
      "Ġdar": 7631,
      "Ġlatter": 7632,
      "ĠAug": 7633,
      "irgin": 7634,
      "ili": 7635,
      "ifies": 7636,
      "ĠOct": 7637,
      "Ġaliens": 7638,
      "ĠEver": 7639,
      "Ġours": 7640,
      "Ġuncon": 7641,
      "âĢľ": 7642,
      "Ġsport": 7643,
      "Ġbump": 7644,
      "ĠStud": 7645,
      "Ġimplic": 7646,
      "Ġdefensive": 7647,
      "Ġlefties": 7648,
      "Ġaddiction": 7649,
      "Ġkinda": 7650,
      "Ġproperties": 7651,
      "Ġfacility": 7652,
      "Ġstraw": 7653,
      "Ġhyper": 7654,
      "letes": 7655,
      "Ġnetwork": 7656,
      "Ġforgotten": 7657,
      "Ġfemin": 7658,
      "Ġrejected": 7659,
      "Ġcontrad": 7660,
      "Ġcontrary": 7661,
      "Ġexperienced": 7662,
      "09": 7663,
      "Ar": 7664,
      "Donald": 7665,
      "big": 7666,
      "da": 7667,
      "fol": 7668,
      "paid": 7669,
      "Ġ??": 7670,
      "isons": 7671,
      "Ġcig": 7672,
      "Ġpicking": 7673,
      "Ġfashion": 7674,
      "ĠTim": 7675,
      "adian": 7676,
      "igration": 7677,
      "Ġstead": 7678,
      "ĠSun": 7679,
      "ĠHill": 7680,
      "Ġlibs": 7681,
      "Ġrare": 7682,
      "Ġramp": 7683,
      "ĠMarch": 7684,
      "ĠMAGA": 7685,
      "ĠBen": 7686,
      "ĠPE": 7687,
      "ĠGun": 7688,
      "ĠWhatever": 7689,
      "ups": 7690,
      "agement": 7691,
      "Ġdisrupt": 7692,
      "Ġhanded": 7693,
      "archy": 7694,
      "Ġmilit": 7695,
      "Ġdenied": 7696,
      "Ġdrama": 7697,
      "iker": 7698,
      "stitutional": 7699,
      "Ġholds": 7700,
      "Ġsuckers": 7701,
      "Ġpurposes": 7702,
      "Ġspoken": 7703,
      "Ġmerit": 7704,
      "ĠPeace": 7705,
      "Ġscheme": 7706,
      "Ġtactics": 7707,
      "++": 7708,
      "TD": 7709,
      "dies": 7710,
      "mond": 7711,
      "new": 7712,
      "west": 7713,
      "wiki": 7714,
      "wikipedia": 7715,
      "Ġtone": 7716,
      "Ġtries": 7717,
      "origin": 7718,
      "Ġpump": 7719,
      "Ġnach": 7720,
      "Ġgar": 7721,
      "Ġyounger": 7722,
      "Ġstats": 7723,
      "ĠSP": 7724,
      "ĠMel": 7725,
      "ĠPERS": 7726,
      "ĠDACA": 7727,
      "Ġshots": 7728,
      "Ġking": 7729,
      "ested": 7730,
      "ĠOUT": 7731,
      "osition": 7732,
      "ĠFred": 7733,
      "ubb": 7734,
      "Ġsafer": 7735,
      "ĠChris": 7736,
      "oots": 7737,
      "Ġinstance": 7738,
      "Ġaffairs": 7739,
      "Ġlocated": 7740,
      "Ġsituations": 7741,
      "ungen": 7742,
      "ĠTHEY": 7743,
      "alties": 7744,
      "ĠEnjoy": 7745,
      "Ġpreviously": 7746,
      "ĠSiem": 7747,
      "ĠElway": 7748,
      "Ġinitial": 7749,
      "Ġfarmers": 7750,
      "Ġintellectual": 7751,
      "Ġshelter": 7752,
      "Ġequivalent": 7753,
      "Ġmisogynist": 7754,
      "07": 7755,
      "HL": 7756,
      "So": 7757,
      "function": 7758,
      "Ġaim": 7759,
      "inated": 7760,
      "Ġcards": 7761,
      "itbart": 7762,
      "Ġhier": 7763,
      "arre": 7764,
      "acies": 7765,
      "imony": 7766,
      "ĠMal": 7767,
      "Ġproceed": 7768,
      "ĠLOS": 7769,
      "think": 7770,
      "Ġmail": 7771,
      "apse": 7772,
      "Ġgrant": 7773,
      "Ġprejud": 7774,
      "Ġapplied": 7775,
      "aka": 7776,
      "augh": 7777,
      "prot": 7778,
      "Ġcreation": 7779,
      "Ġbitter": 7780,
      "Ġfirearm": 7781,
      "Ġindustries": 7782,
      "Ġawesome": 7783,
      "ĠKevin": 7784,
      "Ġunfortunate": 7785,
      "ischen": 7786,
      "ĠCommit": 7787,
      "Ġhotel": 7788,
      "Ġfeeding": 7789,
      "OME": 7790,
      "ĠBritain": 7791,
      "Ġslowly": 7792,
      "Ġimpeached": 7793,
      "Ġroute": 7794,
      "Ġphrase": 7795,
      "Ġwriters": 7796,
      "Ġoverseas": 7797,
      "UD": 7798,
      "UL": 7799,
      "oom": 7800,
      "isd": 7801,
      "Ġbust": 7802,
      "Ġcents": 7803,
      "orne": 7804,
      "aren": 7805,
      "rock": 7806,
      "Ġstink": 7807,
      "cho": 7808,
      "Ġgoog": 7809,
      "ĠLou": 7810,
      "Ġchain": 7811,
      "ĠUm": 7812,
      "ulture": 7813,
      "ondon": 7814,
      "Ġbridge": 7815,
      "Ġfactual": 7816,
      "Ġroy": 7817,
      "Ġterr": 7818,
      "ĠClass": 7819,
      "Ġhumor": 7820,
      "itizens": 7821,
      "ONG": 7822,
      "Ġdepends": 7823,
      "Ġdrain": 7824,
      "Ġjudgment": 7825,
      "lusive": 7826,
      "Ġdirected": 7827,
      "AST": 7828,
      "Ġfamiliar": 7829,
      "because": 7830,
      "ĠCorpor": 7831,
      "Ġbags": 7832,
      "Ġsympathy": 7833,
      "Ġirony": 7834,
      "Ġbesides": 7835,
      "Ġpuppet": 7836,
      "Ġgullible": 7837,
      "night": 7838,
      "oop": 7839,
      "inf": 7840,
      "Ġpitch": 7841,
      "lly": 7842,
      "Ġhurric": 7843,
      "ĠSS": 7844,
      "olves": 7845,
      "ĠBUT": 7846,
      "ĠDec": 7847,
      "Ġproving": 7848,
      "Ġ150": 7849,
      "Ġenab": 7850,
      "Ġscene": 7851,
      "Ġconsumer": 7852,
      "Ġfuels": 7853,
      "Ġstops": 7854,
      "Ġwarrant": 7855,
      "Ġslaves": 7856,
      "Ġinstruct": 7857,
      "Ġ2013": 7858,
      "ĠOrange": 7859,
      "ungs": 7860,
      "Ġ75": 7861,
      "ĠPeriod": 7862,
      "ESS": 7863,
      "Ġbullying": 7864,
      "Ġtrolling": 7865,
      "Ġeiner": 7866,
      "ITY": 7867,
      "Ġcollective": 7868,
      "IGHT": 7869,
      "Ġdemonstrated": 7870,
      "Ġhanging": 7871,
      "ĠJapanese": 7872,
      "Ġmedicine": 7873,
      "ĠCenter": 7874,
      "Ġratings": 7875,
      "Ġfortun": 7876,
      "Ġxen": 7877,
      "Ġimpeachment": 7878,
      "Ġopponents": 7879,
      "Ġcontempt": 7880,
      "26": 7881,
      "FA": 7882,
      "There": 7883,
      "econom": 7884,
      "person": 7885,
      "then": 7886,
      "uate": 7887,
      "when": 7888,
      "worth": 7889,
      "Ġtoll": 7890,
      "eden": 7891,
      "oter": 7892,
      "ĠBas": 7893,
      "ĠLondon": 7894,
      "Ġmechan": 7895,
      "ismus": 7896,
      "Ġattended": 7897,
      "Ġdems": 7898,
      "ĠClintons": 7899,
      "aze": 7900,
      "hips": 7901,
      "Ġbehalf": 7902,
      "Ġmission": 7903,
      "Ġ2020": 7904,
      "Ġderanged": 7905,
      "Ġswitch": 7906,
      "Ġsuggestion": 7907,
      "Ġsentences": 7908,
      "noise": 7909,
      "ĠNOW": 7910,
      "ĠGrand": 7911,
      "Ġrepresentative": 7912,
      "Ġbloody": 7913,
      "Ġcrook": 7914,
      "Ġreminds": 7915,
      "Ġaudience": 7916,
      "Ġmurderer": 7917,
      "========": 7918,
      "Ġannounced": 7919,
      "Ġveterans": 7920,
      "ĠArabia": 7921,
      "known": 7922,
      "ĠBesides": 7923,
      "Ġbathroom": 7924,
      "Ġphilosoph": 7925,
      "dling": 7926,
      "iable": 7927,
      "tin": 7928,
      "Ġbom": 7929,
      "Ġfab": 7930,
      "Ġfeds": 7931,
      "Ġfisher": 7932,
      "Ġhill": 7933,
      "Ġhits": 7934,
      "Ġreached": 7935,
      "Ġstamp": 7936,
      "Ġstret": 7937,
      "ĠSim": 7938,
      "ĠWILL": 7939,
      "ĠHi": 7940,
      "ĠHom": 7941,
      "Ġrarely": 7942,
      "Ġrandom": 7943,
      "isting": 7944,
      "ĠDel": 7945,
      "Ġshove": 7946,
      "Ġshape": 7947,
      "arded": 7948,
      "aph": 7949,
      "Ġimage": 7950,
      "Ġ2000": 7951,
      "Ġsav": 7952,
      "Ġhadn": 7953,
      "Ġruin": 7954,
      "Ġruled": 7955,
      "Ġconsumption": 7956,
      "ibilities": 7957,
      "ĠAsk": 7958,
      "Ġinsp": 7959,
      "Ġsimpl": 7960,
      "ĠClimate": 7961,
      "Ġstrength": 7962,
      "Ġdenial": 7963,
      "Ġdisturb": 7964,
      "Ġregularly": 7965,
      "Ġproductive": 7966,
      "Ġannoy": 7967,
      "Ġunfit": 7968,
      "Ġsupposedly": 7969,
      "Ġhydro": 7970,
      "Ġmeaningless": 7971,
      "Ġwildlife": 7972,
      "Ġimmediate": 7973,
      "ĠSurely": 7974,
      "ĠTerror": 7975,
      "ABaerbock": 7976,
      "Ġefficient": 7977,
      "ĠCharles": 7978,
      "ĠRidiculous": 7979,
      "34": 7980,
      "FF": 7981,
      "NG": 7982,
      "bst": 7983,
      "col": 7984,
      "dam": 7985,
      "ere": 7986,
      "iat": 7987,
      "va": 7988,
      "Ġwieder": 7989,
      "orb": 7990,
      "Ġpill": 7991,
      "Ġpapers": 7992,
      "ader": 7993,
      "Ġstance": 7994,
      "illiant": 7995,
      "keys": 7996,
      "ĠHel": 7997,
      "ĠMove": 7998,
      "eland": 7999,
      "Ġtrillion": 8000,
      "Ġspray": 8001,
      "ogy": 8002,
      "ishop": 8003,
      "Ġpreced": 8004,
      "Ġbrut": 8005,
      "ordable": 8006,
      "Ġtrucks": 8007,
      "Ġcommand": 8008,
      "ĠAnge": 8009,
      "Ġremaining": 8010,
      "Ġinsight": 8011,
      "Ġelites": 8012,
      "Ġinvesting": 8013,
      "ĠĠĠĠĠĠĠ": 8014,
      "Ġguessing": 8015,
      "RES": 8016,
      "Ġexpecting": 8017,
      "Ġsidew": 8018,
      "Ġsuggested": 8019,
      "Ġarguing": 8020,
      "hhhh": 8021,
      "Ġvacc": 8022,
      "Ġmeaningful": 8023,
      "Ġpermit": 8024,
      "Ġprinciple": 8025,
      "politics": 8026,
      "charge": 8027,
      "business": 8028,
      "ĠOffice": 8029,
      "pdf": 8030,
      "85": 8031,
      "CA": 8032,
      "Sch": 8033,
      "mosp": 8034,
      "Ġdys": 8035,
      "Ġnom": 8036,
      "ĠTA": 8037,
      "star": 8038,
      "Ġbeating": 8039,
      "Ġwhine": 8040,
      "keep": 8041,
      "ĠHuman": 8042,
      "ĠNC": 8043,
      "ĠNavy": 8044,
      "ĠOMG": 8045,
      "ĠFar": 8046,
      "ĠEPA": 8047,
      "Ġbacked": 8048,
      "Ġspewing": 8049,
      "gery": 8050,
      "Ġhelpful": 8051,
      "Ġserves": 8052,
      "Ġcontrovers": 8053,
      "Ġmisleading": 8054,
      "Ġaccountability": 8055,
      "ĠSenators": 8056,
      "ealous": 8057,
      "Ġtesting": 8058,
      "ĠChristmas": 8059,
      "Ġcontributions": 8060,
      "Ġfocused": 8061,
      "Ġsteps": 8062,
      "Ġwindow": 8063,
      "Ġversus": 8064,
      "Ġprinciples": 8065,
      "ĠFinally": 8066,
      "Ġassessment": 8067,
      "ĠRegardless": 8068,
      "Ġmaxim": 8069,
      "Ġbodies": 8070,
      "Ġsymbol": 8071,
      "29": 8072,
      "gs": 8073,
      "ii": 8074,
      "mare": 8075,
      "tle": 8076,
      "ora": 8077,
      "oration": 8078,
      "organ": 8079,
      "Ġfires": 8080,
      "esla": 8081,
      "Ġhal": 8082,
      "Ġhating": 8083,
      "ĠAber": 8084,
      "ĠSir": 8085,
      "ĠSub": 8086,
      "Ġcancell": 8087,
      "active": 8088,
      "Ġagents": 8089,
      "Ġcontain": 8090,
      "Ġpartner": 8091,
      "Ġgoodness": 8092,
      "bey": 8093,
      "Ġappar": 8094,
      "dered": 8095,
      "Ġconscience": 8096,
      "Ġtwenty": 8097,
      "Ġlegacy": 8098,
      "Ġendless": 8099,
      "Ġkills": 8100,
      "Ġ2012": 8101,
      "why": 8102,
      "arbon": 8103,
      "Ġdetail": 8104,
      "Ġshooter": 8105,
      "Ġfalls": 8106,
      "Ġhyster": 8107,
      "Ġdividends": 8108,
      "ophobia": 8109,
      "Ġinjured": 8110,
      "Ġsplit": 8111,
      "Ġprecise": 8112,
      "believable": 8113,
      "ĠBombardier": 8114,
      "ĠSiemian": 8115,
      "ĠCommittee": 8116,
      "400": 8117,
      "Le": 8118,
      "rad": 8119,
      "vation": 8120,
      "world": 8121,
      "Ġâ": 8122,
      "atz": 8123,
      "Ġbid": 8124,
      "anish": 8125,
      "Ġpages": 8126,
      "Ġtoss": 8127,
      "Ġmoose": 8128,
      "ala": 8129,
      "ĠSE": 8130,
      "ctic": 8131,
      "Ġlift": 8132,
      "ĠBuild": 8133,
      "ĠPuerto": 8134,
      "Ġshared": 8135,
      "Ġwheel": 8136,
      "Ġunif": 8137,
      "ĠKill": 8138,
      "Ġadequ": 8139,
      "Ġbless": 8140,
      "Ġblowing": 8141,
      "Ġcounting": 8142,
      "Ġperce": 8143,
      "beit": 8144,
      "Ġspell": 8145,
      "ĠVeg": 8146,
      "Ġparag": 8147,
      "Ġcarried": 8148,
      "Ġfinished": 8149,
      "Ġfailures": 8150,
      "Ġloving": 8151,
      "Ġveto": 8152,
      "Ġpractical": 8153,
      "Ġbarrel": 8154,
      "Ġcounsel": 8155,
      "Ġgoverning": 8156,
      "Ġpeaceful": 8157,
      "Ġpubl": 8158,
      "Ġcustomer": 8159,
      "Ġconsistently": 8160,
      "intell": 8161,
      "Ġregistered": 8162,
      "Ġsustainable": 8163,
      "Ġadvertising": 8164,
      "ĠAdministration": 8165,
      "ĠSunday": 8166,
      "pie": 8167,
      "uable": 8168,
      "isive": 8169,
      "Ġbiz": 8170,
      "Ġbarely": 8171,
      "Ġcite": 8172,
      "ingen": 8173,
      "Ġhated": 8174,
      "AND": 8175,
      "ĠII": 8176,
      "ente": 8177,
      "Ġears": 8178,
      "ĠCA": 8179,
      "Ġrank": 8180,
      "Ġsovere": 8181,
      "ĠRacist": 8182,
      "ĠLat": 8183,
      "ĠLee": 8184,
      "Ġalien": 8185,
      "Ġoutright": 8186,
      "Ġspoke": 8187,
      "Ġbeings": 8188,
      "Ġowns": 8189,
      "ocracy": 8190,
      "Ġdeserved": 8191,
      "Ġobt": 8192,
      "Ġfamous": 8193,
      "ERIC": 8194,
      "Ġdifferently": 8195,
      "angers": 8196,
      "Ġ1980": 8197,
      "Ġraises": 8198,
      "Ġsocialism": 8199,
      "Ġmodels": 8200,
      "Ġgenerate": 8201,
      "appropri": 8202,
      "ĠArt": 8203,
      "ĠCongrat": 8204,
      "Ġfallen": 8205,
      "ĠMexicans": 8206,
      "Ġdemanding": 8207,
      "ĠEngland": 8208,
      "Ġprofessor": 8209,
      "Ġcrooks": 8210,
      "Ġlaughable": 8211,
      "Ġphotos": 8212,
      "Ġreplacement": 8213,
      "Ġprofessionals": 8214,
      "ĠAttorney": 8215,
      "'?": 8216,
      "36": 8217,
      "OD": 8218,
      "ef": 8219,
      "mart": 8220,
      "ober": 8221,
      "pan": 8222,
      "people": 8223,
      "Âł": 8224,
      "Ġbone": 8225,
      "Ġbasket": 8226,
      "oride": 8227,
      "ede": 8228,
      "Ġlength": 8229,
      "ĠTill": 8230,
      "Ġelement": 8231,
      "igation": 8232,
      "igible": 8233,
      "utm": 8234,
      "Ġstone": 8235,
      "ĠSuck": 8236,
      "ĠSoros": 8237,
      "ĠWater": 8238,
      "opin": 8239,
      "estion": 8240,
      "unity": 8241,
      "ĠFI": 8242,
      "Ġalarm": 8243,
      "ĠEner": 8244,
      "ĠJew": 8245,
      "Ġappl": 8246,
      "Ġkeine": 8247,
      "Ġroof": 8248,
      "Ġattrib": 8249,
      "Ġschol": 8250,
      "comes": 8251,
      "azine": 8252,
      "ĠĠĠĠĠĠ": 8253,
      "Ġservants": 8254,
      "Ġcollapse": 8255,
      "Ġtransl": 8256,
      "Ġ65": 8257,
      "arris": 8258,
      "Ġcondo": 8259,
      "Ġpresence": 8260,
      "Ġrevolution": 8261,
      "Ġaddressing": 8262,
      "Ġresidential": 8263,
      "Ġsubsidy": 8264,
      "Ġdevil": 8265,
      "Ġrequirement": 8266,
      "including": 8267,
      "Ġcrossing": 8268,
      "Ġpretending": 8269,
      "Ġdiese": 8270,
      "Ġcomfortable": 8271,
      "Ġparasites": 8272,
      "BA": 8273,
      "Bl": 8274,
      "IV": 8275,
      "fire": 8276,
      "mes": 8277,
      "yer": 8278,
      "Ġtires": 8279,
      "Ġfif": 8280,
      "Ġthier": 8281,
      "Ġgiant": 8282,
      "Ġelev": 8283,
      "ching": 8284,
      "urally": 8285,
      "ĠDist": 8286,
      "Ġshocked": 8287,
      "ĠkÃ¶": 8288,
      "ĠLord": 8289,
      "Ġmere": 8290,
      "ĠJT": 8291,
      "ĠHead": 8292,
      "Ġenlight": 8293,
      "Ġtrend": 8294,
      "Ġspite": 8295,
      "Ġquo": 8296,
      "Ġrush": 8297,
      "Ġworker": 8298,
      "Ġtelev": 8299,
      "Ġentry": 8300,
      "Ġgreatly": 8301,
      "exper": 8302,
      "Ġequality": 8303,
      "Ġcolon": 8304,
      "Ġwingers": 8305,
      "Ġmasses": 8306,
      "Ġreceiving": 8307,
      "Ġhurts": 8308,
      "Ġcrude": 8309,
      "Ġethical": 8310,
      "holders": 8311,
      "Ġtemporary": 8312,
      "Ġnegotiate": 8313,
      "Ġshopping": 8314,
      "Ġparticipate": 8315,
      "Ġinjury": 8316,
      "Ġlaund": 8317,
      "ĠCPC": 8318,
      "Ġrevealed": 8319,
      "ĠRockies": 8320,
      "Ġwanna": 8321,
      "Ġmigrants": 8322,
      "swered": 8323,
      "ĠKennedy": 8324,
      "28": 8325,
      "IOT": 8326,
      "gary": 8327,
      "long": 8328,
      "rome": 8329,
      "uine": 8330,
      "wan": 8331,
      "inal": 8332,
      "Ġsink": 8333,
      "Ġpensions": 8334,
      "Ġanswered": 8335,
      "ĠTro": 8336,
      "Ġger": 8337,
      "Ġelder": 8338,
      "owered": 8339,
      "ache": 8340,
      "ĠAR": 8341,
      "ĠAri": 8342,
      "igence": 8343,
      "Ġatmosp": 8344,
      "ĠRac": 8345,
      "Ġ1000": 8346,
      "izer": 8347,
      "irect": 8348,
      "ĠChange": 8349,
      "Ġimpressed": 8350,
      "ĠLiar": 8351,
      "Ġwont": 8352,
      "Ġdistance": 8353,
      "ARS": 8354,
      "Ġfreak": 8355,
      "Ġmalign": 8356,
      "ĠREAL": 8357,
      "Ġtroub": 8358,
      "Ġtourism": 8359,
      "Ġemotion": 8360,
      "Ġengineering": 8361,
      "works": 8362,
      "Ġhomosexual": 8363,
      "Ġvulner": 8364,
      "ĠService": 8365,
      "Ġjurisd": 8366,
      "Ġthieves": 8367,
      "ĠJoseph": 8368,
      "Ġparagraph": 8369,
      "GB": 8370,
      "rie": 8371,
      "sl": 8372,
      "Ġ%": 8373,
      "Ġges": 8374,
      "Ġegg": 8375,
      "ĠAff": 8376,
      "Ġstake": 8377,
      "ĠCow": 8378,
      "Ġliqu": 8379,
      "Ġdoors": 8380,
      "ĠPrem": 8381,
      "ĠNat": 8382,
      "ĠNation": 8383,
      "ĠDON": 8384,
      "Ġshoes": 8385,
      "ĠRC": 8386,
      "Ġupgr": 8387,
      "Ġmap": 8388,
      "Ġoffering": 8389,
      "Ġpartners": 8390,
      "Ġbranch": 8391,
      "weet": 8392,
      "Ġheaded": 8393,
      "Ġloses": 8394,
      "Ġdram": 8395,
      "shore": 8396,
      "Ġseconds": 8397,
      "class": 8398,
      "ACK": 8399,
      "Ġbarg": 8400,
      "Ġcreates": 8401,
      "Ġresponding": 8402,
      "Ġqualify": 8403,
      "Ġsilent": 8404,
      "Ġordinary": 8405,
      "Ġnarrow": 8406,
      "ĠAnti": 8407,
      "ĠSmith": 8408,
      "Ġalleged": 8409,
      "Ġlaunch": 8410,
      "Ġfingers": 8411,
      "Ġobstruction": 8412,
      "ĠPersonally": 8413,
      "ĠSpring": 8414,
      "Ġmiserable": 8415,
      "39": 8416,
      "pite": 8417,
      "vor": 8418,
      "ye": 8419,
      "Ġtie": 8420,
      "Ġwed": 8421,
      "Ġwitch": 8422,
      "Ġwishes": 8423,
      "erning": 8424,
      "utors": 8425,
      "Ġstress": 8426,
      "Ġheaven": 8427,
      "ĠCut": 8428,
      "ĠWa": 8429,
      "ĠWTF": 8430,
      "Ġrats": 8431,
      "ĠDump": 8432,
      "ĠDuring": 8433,
      "Ġconference": 8434,
      "rier": 8435,
      "ĠTrust": 8436,
      "Ġworship": 8437,
      "ĠEduc": 8438,
      "ĠKN": 8439,
      "Ġblank": 8440,
      "ĠStand": 8441,
      "Ġcooper": 8442,
      "ĠVict": 8443,
      "Ġendors": 8444,
      "anges": 8445,
      "OTH": 8446,
      "umptions": 8447,
      "Ġphones": 8448,
      "Ġ2011": 8449,
      "ĠShut": 8450,
      "Ġsolved": 8451,
      "Ġcampus": 8452,
      "ĠFriday": 8453,
      "Ġlandl": 8454,
      "They": 8455,
      "Ġrepresentatives": 8456,
      "Ġopposing": 8457,
      "ĠKorean": 8458,
      "ĠColumb": 8459,
      "Ġoriginally": 8460,
      "Ġidentified": 8461,
      "Ġdegrees": 8462,
      "Ġcapitalism": 8463,
      "Ġsympath": 8464,
      "Ġfrustr": 8465,
      "Ġassuming": 8466,
      "Ġclothing": 8467,
      "Ġathletes": 8468,
      "Ġbegins": 8469,
      "ĠScheer": 8470,
      "Ġinevitable": 8471,
      "Ġilk": 8472,
      "Ġnomine": 8473,
      "ĠCongratulations": 8474,
      "IE": 8475,
      "ugg": 8476,
      "invest": 8477,
      "Ġbite": 8478,
      "itage": 8479,
      "ani": 8480,
      "Ġdup": 8481,
      "Ġgegen": 8482,
      "story": 8483,
      "igate": 8484,
      "ola": 8485,
      "ĠMax": 8486,
      "ista": 8487,
      "Ġneut": 8488,
      "Ġsufficient": 8489,
      "ĠFreedom": 8490,
      "Ġplastic": 8491,
      "Ġunit": 8492,
      "Ġdisgust": 8493,
      "Ġcomparing": 8494,
      "ogue": 8495,
      "Ġbackwards": 8496,
      "Ġremarks": 8497,
      "Ġ400": 8498,
      "ologies": 8499,
      "ertainly": 8500,
      "regard": 8501,
      "Ġmoderate": 8502,
      "ĠPermanent": 8503,
      "Ġeinf": 8504,
      "Ġoperation": 8505,
      "Ġsubsidized": 8506,
      "ĠConstitutional": 8507,
      "Ġembarrassed": 8508,
      "Ġsquare": 8509,
      "Ġdemonstrate": 8510,
      "Ġbankruptcy": 8511,
      "Ġsensible": 8512,
      "ĠPalest": 8513,
      "ritory": 8514,
      "Ġacknowled": 8515,
      "Ġinitiative": 8516,
      "Ġearnings": 8517,
      "Ġpedophile": 8518,
      "Ġsnowflake": 8519,
      "Ġmunicipal": 8520,
      "hi": 8521,
      "pat": 8522,
      "inem": 8523,
      "instein": 8524,
      "ref": 8525,
      "only": 8526,
      "Ġbreed": 8527,
      "Ġfart": 8528,
      "Ġantic": 8529,
      "Ġmic": 8530,
      "Ġhi": 8531,
      "arians": 8532,
      "Ġlately": 8533,
      "Ġeg": 8534,
      "Ġstorm": 8535,
      "ĠSing": 8536,
      "ĠSur": 8537,
      "oln": 8538,
      "opp": 8539,
      "ĠMakes": 8540,
      "ifts": 8541,
      "ource": 8542,
      "abilities": 8543,
      "aux": 8544,
      "aping": 8545,
      "Ġwhenever": 8546,
      "Ġoffended": 8547,
      "Ġenorm": 8548,
      "ensity": 8549,
      "Ġteeth": 8550,
      "Ġexpend": 8551,
      "Ġassumption": 8552,
      "Ġparade": 8553,
      "Ġdifferences": 8554,
      "Ġmonster": 8555,
      "eez": 8556,
      "Ġfinish": 8557,
      "Ġpresidents": 8558,
      "Ġboards": 8559,
      "Ġmoves": 8560,
      "Ġmilk": 8561,
      "ĠAmazing": 8562,
      "claim": 8563,
      "Ġconvince": 8564,
      "Ġdeeply": 8565,
      "ĠCrime": 8566,
      "Ġultimate": 8567,
      "Ġguaranteed": 8568,
      "Ġdisappointed": 8569,
      "Ġcompromise": 8570,
      "Ġconfirmed": 8571,
      "ĠWelcome": 8572,
      "But": 8573,
      "best": 8574,
      "kins": 8575,
      "sk": 8576,
      "inating": 8577,
      "Ġsister": 8578,
      "Ġbicy": 8579,
      "Ġhyp": 8580,
      "Ġforb": 8581,
      "Ġdozen": 8582,
      "ĠMet": 8583,
      "urday": 8584,
      "ĠPac": 8585,
      "Ġshift": 8586,
      "gel": 8587,
      "ĠRa": 8588,
      "ĠRick": 8589,
      "Ġexceed": 8590,
      "ĠEconom": 8591,
      "ĠUse": 8592,
      "udic": 8593,
      "Ġclosing": 8594,
      "Ġdislike": 8595,
      "Ġresc": 8596,
      "Ġblog": 8597,
      "ĠCharter": 8598,
      "Ġconsent": 8599,
      "ĠAng": 8600,
      "Ġfinds": 8601,
      "Ġquestionable": 8602,
      "Ġlocals": 8603,
      "Ġdeveloping": 8604,
      "Ġdisagrees": 8605,
      "Ġcompetent": 8606,
      "ĠChristy": 8607,
      "Ġtrusted": 8608,
      "Ġstrongly": 8609,
      "Ġdescription": 8610,
      "Ġcircle": 8611,
      "blog": 8612,
      "information": 8613,
      "Ġaccidents": 8614,
      "Ġscumbags": 8615,
      "Ġtools": 8616,
      "Ġconclusions": 8617,
      "Ġarrived": 8618,
      "Ġcamera": 8619,
      "Ġmonopoly": 8620,
      "orneys": 8621,
      "Ġdysfunction": 8622,
      "?ï¿½ï¿½ï¿½ï¿½": 8623,
      "Af": 8624,
      "An": 8625,
      "AIN": 8626,
      "EM": 8627,
      "Is": 8628,
      "Junge": 8629,
      "SU": 8630,
      "coph": 8631,
      "ds": 8632,
      "ean": 8633,
      "lar": 8634,
      "mates": 8635,
      "million": 8636,
      "rank": 8637,
      "Ġ!!!!": 8638,
      "Ġbin": 8639,
      "Ġfoul": 8640,
      "Ġdial": 8641,
      "ali": 8642,
      "ĠIge": 8643,
      "ĠTal": 8644,
      "Ġisol": 8645,
      "ĠApr": 8646,
      "ĠSoci": 8647,
      "ĠSept": 8648,
      "ĠCard": 8649,
      "ĠHmm": 8650,
      "ĠMillion": 8651,
      "ĠBell": 8652,
      "ĠPoint": 8653,
      "Ġordered": 8654,
      "Ġven": 8655,
      "ortions": 8656,
      "ĠGes": 8657,
      "ĠUp": 8658,
      "Ġagric": 8659,
      "Ġarch": 8660,
      "Ġarmy": 8661,
      "assen": 8662,
      "Ġenact": 8663,
      "Ġstupidest": 8664,
      "Ġgrasp": 8665,
      "itty": 8666,
      "Ġbacks": 8667,
      "Ġpregn": 8668,
      "ĠVi": 8669,
      "never": 8670,
      "Ġchances": 8671,
      "Ġreads": 8672,
      "airy": 8673,
      "Ġsurplus": 8674,
      "ĠArmy": 8675,
      "Ġaccepting": 8676,
      "Ġexisted": 8677,
      "Ġauthorities": 8678,
      "Ġrisks": 8679,
      "Ġtestimony": 8680,
      "Ġconviction": 8681,
      "Ġfreaking": 8682,
      "Ġstrikes": 8683,
      "Ġentitlement": 8684,
      "Ġessential": 8685,
      "ĠHAVE": 8686,
      "ĠAbout": 8687,
      "Ã¤Ã¤n": 8688,
      "Ġironic": 8689,
      "Ġdiscrimination": 8690,
      "Ġbirds": 8691,
      "ĠSarah": 8692,
      "Ġhence": 8693,
      "Ġchaos": 8694,
      "ĠEnergy": 8695,
      "67": 8696,
      "Russ": 8697,
      "oa": 8698,
      "uz": 8699,
      "vate": 8700,
      "Ġtaste": 8701,
      "inen": 8702,
      "Ġpard": 8703,
      "stration": 8704,
      "acco": 8705,
      "ĠCamp": 8706,
      "ĠWenn": 8707,
      "ĠHistory": 8708,
      "ĠMain": 8709,
      "ĠBoe": 8710,
      "ĠPower": 8711,
      "ĠLake": 8712,
      "ĠFO": 8713,
      "Ġclimb": 8714,
      "Ġimmer": 8715,
      "Ġspends": 8716,
      "ensus": 8717,
      "Ġelectorate": 8718,
      "Ġ$$$": 8719,
      "Ġissued": 8720,
      "Ġserial": 8721,
      "Ġheading": 8722,
      "Ġinvested": 8723,
      "Ġinterference": 8724,
      "Ġpattern": 8725,
      "Ġpatient": 8726,
      "Ġextract": 8727,
      "Ġcontrolling": 8728,
      "Ġdeport": 8729,
      "Ġvett": 8730,
      "ĠAnything": 8731,
      ",,,,": 8732,
      "Ġsuggests": 8733,
      "Ġapartment": 8734,
      "Ġmurders": 8735,
      "Ġconvention": 8736,
      "Ġrepresentation": 8737,
      "Ġnightmare": 8738,
      "Ġbaseball": 8739,
      "Ġsoldier": 8740,
      "Ġfreedoms": 8741,
      "Ġpaint": 8742,
      "Ġprimarily": 8743,
      "Ġchallenged": 8744,
      "Ġcombat": 8745,
      "Ġislands": 8746,
      "Ġallegations": 8747,
      "Ġnewspapers": 8748,
      "Ġrestrictions": 8749,
      "Ġflee": 8750,
      "ĠIDIOT": 8751,
      "Ġbonds": 8752,
      "qualified": 8753,
      "?ï¿½ï¿½ï¿½ï¿½ï¿½ï¿½": 8754,
      "Un": 8755,
      "Uwe": 8756,
      "national": 8757,
      "oved": 8758,
      "po": 8759,
      "rent": 8760,
      "rary": 8761,
      "Ġ???": 8762,
      "Ġtune": 8763,
      "Ġsets": 8764,
      "ische": 8765,
      "Ġancest": 8766,
      "Ġanonym": 8767,
      "Ġthorough": 8768,
      "Ġlacking": 8769,
      "adv": 8770,
      "Ġstadium": 8771,
      "ĠCru": 8772,
      "Ġliberty": 8773,
      "ateful": 8774,
      "urning": 8775,
      "ĠLane": 8776,
      "ĠThree": 8777,
      "emb": 8778,
      "astrop": 8779,
      "Ġoffers": 8780,
      "Ġgrass": 8781,
      "Ġdecides": 8782,
      "Ġunderstands": 8783,
      "Ġvaluable": 8784,
      "Ġdenying": 8785,
      "Ġswall": 8786,
      "ĠExec": 8787,
      "Ġstaying": 8788,
      "ĠMcG": 8789,
      "heads": 8790,
      "Ġdiscussing": 8791,
      "Ġconsideration": 8792,
      "Ġmotion": 8793,
      "Ġcovering": 8794,
      "ĠWHO": 8795,
      "Ġprofitable": 8796,
      "Ġminorities": 8797,
      "incoln": 8798,
      "Ġdropping": 8799,
      "ĠSteven": 8800,
      "ĠPlan": 8801,
      "Ġduties": 8802,
      "Ġtradition": 8803,
      "ĠFeb": 8804,
      "Ġmountain": 8805,
      "Ġappeared": 8806,
      "ĠAMERIC": 8807,
      "Ġdinner": 8808,
      "ĠDirector": 8809,
      "irginia": 8810,
      "Ġeinfach": 8811,
      "98": 8812,
      "holes": 8813,
      "iency": 8814,
      "ja": 8815,
      "rowing": 8816,
      "hend": 8817,
      "Ġole": 8818,
      "Ġdivers": 8819,
      "Ġinsec": 8820,
      "Ġni": 8821,
      "Ġgall": 8822,
      "illions": 8823,
      "ĠCat": 8824,
      "amas": 8825,
      "Ġram": 8826,
      "ĠMic": 8827,
      "ĠMos": 8828,
      "ĠBund": 8829,
      "tery": 8830,
      "Ġframe": 8831,
      "Ġfrank": 8832,
      "ĠLa": 8833,
      "Ġoverd": 8834,
      "Ġads": 8835,
      "Ġincomes": 8836,
      "Ġblo": 8837,
      "bered": 8838,
      "Ġrocks": 8839,
      "Ġassumptions": 8840,
      "Ġtraitors": 8841,
      "ĠRev": 8842,
      "Ġedge": 8843,
      "Ġmorally": 8844,
      "Ġserver": 8845,
      "Ġinterfe": 8846,
      "Ġdiscovered": 8847,
      "Ġadvanced": 8848,
      "Ġclassic": 8849,
      "ommen": 8850,
      "ATION": 8851,
      "Ġviewpoint": 8852,
      "Ġmoder": 8853,
      "Ġbullet": 8854,
      "Ġspeculation": 8855,
      "Ġbrainwas": 8856,
      "ĠGuard": 8857,
      "Ġimpacts": 8858,
      "Ġdivision": 8859,
      "Ġspoiled": 8860,
      "Ġtickets": 8861,
      "Ġboring": 8862,
      "ĠCapital": 8863,
      "Ġrebuild": 8864,
      "ĠMajor": 8865,
      "ĠBarack": 8866,
      "Ġdeplorable": 8867,
      "Ġslightly": 8868,
      "ĠConfeder": 8869,
      "ĠRico": 8870,
      "Ġunconstitutional": 8871,
      "Ġvulnerable": 8872,
      "HO": 8873,
      "Ph": 8874,
      "home": 8875,
      "makers": 8876,
      "pri": 8877,
      "public": 8878,
      "take": 8879,
      "uits": 8880,
      "xious": 8881,
      "zuel": 8882,
      "Ġtou": 8883,
      "Ġsane": 8884,
      "Ġhidden": 8885,
      "engh": 8886,
      "Ġislam": 8887,
      "Ġgent": 8888,
      "sey": 8889,
      "Ġitem": 8890,
      "ĠSilly": 8891,
      "ĠWind": 8892,
      "Ġring": 8893,
      "Ġdear": 8894,
      "Ġwash": 8895,
      "ĠNHL": 8896,
      "ppy": 8897,
      "auf": 8898,
      "ĠLong": 8899,
      "ĠLife": 8900,
      "Ġoutlets": 8901,
      "Ġresort": 8902,
      "assad": 8903,
      "owners": 8904,
      "Ġcontest": 8905,
      "ĠThats": 8906,
      "Ġscare": 8907,
      "Ġcommenters": 8908,
      "ĠUnlike": 8909,
      "Ġgenuine": 8910,
      "Ġrefuses": 8911,
      "Ġconcerning": 8912,
      "Ġcompleted": 8913,
      "Ġmindset": 8914,
      "Ġ1970": 8915,
      "Ġlisted": 8916,
      "Ġmainly": 8917,
      "Ġrespected": 8918,
      "Ġneglect": 8919,
      "Ġinvestigating": 8920,
      "Ġbillionaires": 8921,
      "ĠIndepend": 8922,
      "Ġtests": 8923,
      "Ġcomplaints": 8924,
      "Ġstronger": 8925,
      "Ġsucker": 8926,
      "Ġprogressives": 8927,
      "Ġsurvival": 8928,
      "Ġinequ": 8929,
      "Ġhospitals": 8930,
      "Ġincredible": 8931,
      "Ġoutrageous": 8932,
      "ĠBreitbart": 8933,
      "ĠIMO": 8934,
      "ĠUsing": 8935,
      "Ġclothes": 8936,
      "Ġintroduced": 8937,
      "Ġdistribution": 8938,
      "Ġinvolvement": 8939,
      "ĠVegas": 8940,
      "77": 8941,
      "front": 8942,
      "pool": 8943,
      "supp": 8944,
      "wart": 8945,
      "zens": 8946,
      "ĠÂ": 8947,
      "ington": 8948,
      "Ġnurs": 8949,
      "otism": 8950,
      "ĠTurn": 8951,
      "etic": 8952,
      "verted": 8953,
      "lymp": 8954,
      "ĠAF": 8955,
      "ĠSN": 8956,
      "oline": 8957,
      "ĠBow": 8958,
      "ĠYa": 8959,
      "ĠRom": 8960,
      "ĠLincoln": 8961,
      "teen": 8962,
      "Ġguilt": 8963,
      "Ġpersonality": 8964,
      "Ġdefence": 8965,
      "Ġsycoph": 8966,
      "erald": 8967,
      "Ġparliament": 8968,
      "Ġpriests": 8969,
      "Ġmonitor": 8970,
      "Ġextended": 8971,
      "Ġclassified": 8972,
      "Ġfollows": 8973,
      "Ġskill": 8974,
      "Ġimportance": 8975,
      "Ġbuddies": 8976,
      "Ġairpl": 8977,
      "apping": 8978,
      "ĠSpicer": 8979,
      "ĠCongressional": 8980,
      "Ġinternal": 8981,
      "Ġhurting": 8982,
      "Ġobsc": 8983,
      "Ġdivide": 8984,
      "ethical": 8985,
      "Ġexpression": 8986,
      "related": 8987,
      "Ġdeclared": 8988,
      "Ġneighborhoods": 8989,
      "ĠKinder": 8990,
      "Ġannounce": 8991,
      "Ġdependent": 8992,
      "Ġpromoting": 8993,
      "Ġincentive": 8994,
      "Ġsolely": 8995,
      "ĠMontreal": 8996,
      "ĠSimple": 8997,
      "Ġtrigger": 8998,
      "ĠApril": 8999,
      "31": 9000,
      "65": 9001,
      "How": 9002,
      "social": 9003,
      "uction": 9004,
      "wit": 9005,
      "Ġtv": 9006,
      "enz": 9007,
      "Ġbums": 9008,
      "Ġfits": 9009,
      "esh": 9010,
      "Ġdurch": 9011,
      "oming": 9012,
      "Ġrevers": 9013,
      "Ġreverse": 9014,
      "igent": 9015,
      "utz": 9016,
      "ĠCost": 9017,
      "ĠWild": 9018,
      "ĠWake": 9019,
      "opers": 9020,
      "Ġlibert": 9021,
      "Ġrab": 9022,
      "ĠMod": 9023,
      "ĠMary": 9024,
      "ĠMond": 9025,
      "ĠBiden": 9026,
      "htt": 9027,
      "Ġdement": 9028,
      "endum": 9029,
      "umes": 9030,
      "Ġplate": 9031,
      "Ġoffices": 9032,
      "Ġspring": 9033,
      "Ġamaz": 9034,
      "ĠVal": 9035,
      "Ġexport": 9036,
      "ĠAsia": 9037,
      "Ġeval": 9038,
      "Ã¤r": 9039,
      "Ġkillers": 9040,
      "ĠRepresent": 9041,
      "Ġrelief": 9042,
      "Ġgenoc": 9043,
      "ĠPresidential": 9044,
      "Ġloan": 9045,
      "Ġinvestigated": 9046,
      "Ġreferred": 9047,
      "ĠScot": 9048,
      "Ġsenator": 9049,
      "Ġshameless": 9050,
      "Ġmales": 9051,
      "Ġdrove": 9052,
      "ĠPlay": 9053,
      "Ġimprovement": 9054,
      "ĠComments": 9055,
      "Ġsettlement": 9056,
      "Ġspreading": 9057,
      "Ġdaddy": 9058,
      "Ġpredictable": 9059,
      "Ġbureaucrats": 9060,
      "ĠWWII": 9061,
      "Ġfrequently": 9062,
      "Ġassertion": 9063,
      "Ġtorture": 9064,
      "ĠSaturday": 9065,
      "Ġgrabbing": 9066,
      "Ġreliable": 9067,
      "Ġsemi": 9068,
      "Ġreckless": 9069,
      "original": 9070,
      "Ġbombs": 9071,
      "udicrous": 9072,
      "\"!": 9073,
      "dle": 9074,
      "every": 9075,
      "rid": 9076,
      "sun": 9077,
      "zona": 9078,
      "Ġast": 9079,
      "Ġwet": 9080,
      "Ġdign": 9081,
      "sex": 9082,
      "children": 9083,
      "Ġdoomed": 9084,
      "ĠPOS": 9085,
      "Ġku": 9086,
      "ĠFamily": 9087,
      "Ġaggressive": 9088,
      "Ġunre": 9089,
      "away": 9090,
      "ailing": 9091,
      "ogan": 9092,
      "Ġelecting": 9093,
      "Ġimpose": 9094,
      "?????": 9095,
      "Ġtwitter": 9096,
      "Ġtwisted": 9097,
      "Ġrecovery": 9098,
      "ĠNote": 9099,
      "enezuel": 9100,
      "Ġslap": 9101,
      "Ġsurve": 9102,
      "Ġimmoral": 9103,
      "atican": 9104,
      "Ġresulted": 9105,
      "government": 9106,
      "Ġdiscussed": 9107,
      "ĠQuit": 9108,
      "Ġcollected": 9109,
      "Ġloaded": 9110,
      "Ġcycl": 9111,
      "Ġsettle": 9112,
      "Ġautomatically": 9113,
      "Ġproducers": 9114,
      "ĠNYT": 9115,
      "Ġrigged": 9116,
      "ĠElectoral": 9117,
      "ĠIgnor": 9118,
      "ĠOctober": 9119,
      "ĠTillerson": 9120,
      "Ġelderly": 9121,
      "UweJunge": 9122,
      ")?": 9123,
      "._": 9124,
      "300": 9125,
      "44": 9126,
      "dled": 9127,
      "have": 9128,
      "isdom": 9129,
      "Ġlanes": 9130,
      "Ġinappropri": 9131,
      "alin": 9132,
      "ĠTown": 9133,
      "ĠAk": 9134,
      "igt": 9135,
      "ĠCertainly": 9136,
      "amil": 9137,
      "ĠHmmm": 9138,
      "ĠMoney": 9139,
      "ĠDad": 9140,
      "Ġfright": 9141,
      "Ġdidnt": 9142,
      "Ġspr": 9143,
      "Ġpoore": 9144,
      "Ġpayroll": 9145,
      "ttÃ¤": 9146,
      "Ġrecover": 9147,
      "Ġsmile": 9148,
      "ĠAnn": 9149,
      "Ġslave": 9150,
      "Ġdealers": 9151,
      "Ġesp": 9152,
      "tien": 9153,
      "ĠLeave": 9154,
      "Ġresearc": 9155,
      "Ġcomplaint": 9156,
      "Ġsubsidize": 9157,
      "ĠParliament": 9158,
      "Ġpreferred": 9159,
      "Ġpurchased": 9160,
      "Ġheroin": 9161,
      "Ġtourist": 9162,
      "Ġmagic": 9163,
      "Ġlicens": 9164,
      "Ġeliminated": 9165,
      "Ġuniversal": 9166,
      "accur": 9167,
      "Ġelitist": 9168,
      "ĠAugust": 9169,
      "CH": 9170,
      "WS": 9171,
      "lock": 9172,
      "uments": 9173,
      "Ġtens": 9174,
      "Ġamerican": 9175,
      "Ġsne": 9176,
      "Ġsorts": 9177,
      "Ġbru": 9178,
      "Ġfo": 9179,
      "Ġdyn": 9180,
      "arp": 9181,
      "aria": 9182,
      "Ġla": 9183,
      "Ġgig": 9184,
      "Ġbeach": 9185,
      "Ġei": 9186,
      "ĠSn": 9187,
      "rust": 9188,
      "ĠWAS": 9189,
      "Ġweil": 9190,
      "Ġjetzt": 9191,
      "ĠOH": 9192,
      "Ġsoil": 9193,
      "ĠRet": 9194,
      "Ġlease": 9195,
      "Ġwhoever": 9196,
      "ĠLab": 9197,
      "ĠLNG": 9198,
      "osi": 9199,
      "ĠFY": 9200,
      "ĠFuck": 9201,
      "Ġtaxing": 9202,
      "Ġgrid": 9203,
      "Ġgrounds": 9204,
      "Ġguide": 9205,
      "ĠStay": 9206,
      "ĠAlmost": 9207,
      "Ġrobb": 9208,
      "Ġpersonnel": 9209,
      "Ġdefine": 9210,
      "Ġflip": 9211,
      "Ġentity": 9212,
      "Ġsurgery": 9213,
      "Ġpassion": 9214,
      "Ġ2010": 9215,
      "Ġstrict": 9216,
      "Ġpopulations": 9217,
      "Ġpropose": 9218,
      "Ġdepth": 9219,
      "Ġchoosing": 9220,
      "Ġresulting": 9221,
      "Ġresponses": 9222,
      "ĠBeat": 9223,
      "Ġregulated": 9224,
      "Ġshortage": 9225,
      "Ã¶r": 9226,
[...]
